{
  "version": "1.0",
  "truncation": null,
  "padding": null,
  "added_tokens": [
    {
      "id": 0,
      "content": "[UNK]",
      "single_word": false,
      "lstrip": false,
      "rstrip": false,
      "normalized": false,
      "special": true
    },
    {
      "id": 1,
      "content": "[CLS]",
      "single_word": false,
      "lstrip": false,
      "rstrip": false,
      "normalized": false,
      "special": true
    },
    {
      "id": 2,
      "content": "[SEP]",
      "single_word": false,
      "lstrip": false,
      "rstrip": false,
      "normalized": false,
      "special": true
    },
    {
      "id": 3,
      "content": "[PAD]",
      "single_word": false,
      "lstrip": false,
      "rstrip": false,
      "normalized": false,
      "special": true
    },
    {
      "id": 4,
      "content": "[MASK]",
      "single_word": false,
      "lstrip": false,
      "rstrip": false,
      "normalized": false,
      "special": true
    },
    {
      "id": 5,
      "content": "[MEDIA]",
      "single_word": false,
      "lstrip": false,
      "rstrip": false,
      "normalized": false,
      "special": true
    }
  ],
  "normalizer": null,
  "pre_tokenizer": {
    "type": "Whitespace"
  },
  "post_processor": null,
  "decoder": null,
  "model": {
    "type": "BPE",
    "dropout": null,
    "unk_token": "[UNK]",
    "continuing_subword_prefix": null,
    "end_of_word_suffix": null,
    "fuse_unk": false,
    "vocab": {
      "[UNK]": 0,
      "[CLS]": 1,
      "[SEP]": 2,
      "[PAD]": 3,
      "[MASK]": 4,
      "[MEDIA]": 5,
      "!": 6,
      "\"": 7,
      "#": 8,
      "%": 9,
      "&": 10,
      "'": 11,
      "(": 12,
      ")": 13,
      "*": 14,
      "+": 15,
      ",": 16,
      "-": 17,
      ".": 18,
      "/": 19,
      "0": 20,
      "1": 21,
      "2": 22,
      "3": 23,
      "4": 24,
      "5": 25,
      "6": 26,
      "7": 27,
      "8": 28,
      "9": 29,
      ":": 30,
      ";": 31,
      "=": 32,
      ">": 33,
      "?": 34,
      "@": 35,
      "A": 36,
      "B": 37,
      "C": 38,
      "D": 39,
      "E": 40,
      "F": 41,
      "G": 42,
      "H": 43,
      "I": 44,
      "J": 45,
      "K": 46,
      "L": 47,
      "M": 48,
      "N": 49,
      "O": 50,
      "P": 51,
      "Q": 52,
      "R": 53,
      "S": 54,
      "T": 55,
      "U": 56,
      "V": 57,
      "W": 58,
      "X": 59,
      "Y": 60,
      "Z": 61,
      "_": 62,
      "a": 63,
      "b": 64,
      "c": 65,
      "d": 66,
      "e": 67,
      "f": 68,
      "g": 69,
      "h": 70,
      "i": 71,
      "j": 72,
      "k": 73,
      "l": 74,
      "m": 75,
      "n": 76,
      "o": 77,
      "p": 78,
      "q": 79,
      "r": 80,
      "s": 81,
      "t": 82,
      "u": 83,
      "v": 84,
      "w": 85,
      "x": 86,
      "y": 87,
      "z": 88,
      "~": 89,
      "he": 90,
      "ar": 91,
      "__": 92,
      "on": 93,
      "al": 94,
      "in": 95,
      "or": 96,
      "te": 97,
      "is": 98,
      "re": 99,
      "le": 100,
      "an": 101,
      "ed": 102,
      "the": 103,
      "ti": 104,
      "as": 105,
      "th": 106,
      "en": 107,
      "si": 108,
      "The": 109,
      "ac": 110,
      "ri": 111,
      "st": 112,
      "ou": 113,
      "ate": 114,
      "____": 115,
      "om": 116,
      "un": 117,
      "er": 118,
      "of": 119,
      "and": 120,
      "are": 121,
      "ral": 122,
      "um": 123,
      "tion": 124,
      "di": 125,
      "wi": 126,
      "es": 127,
      "with": 128,
      "gh": 129,
      "no": 130,
      "il": 131,
      "ne": 132,
      "___": 133,
      "IN": 134,
      "ef": 135,
      "ol": 136,
      "mal": 137,
      "ch": 138,
      "ght": 139,
      "con": 140,
      "ul": 141,
      "sion": 142,
      "fu": 143,
      "pne": 144,
      "ON": 145,
      "pneum": 146,
      "ra": 147,
      "fusion": 148,
      "ple": 149,
      "ing": 150,
      "effusion": 151,
      "se": 152,
      "thor": 153,
      "id": 154,
      "ent": 155,
      "ly": 156,
      "ung": 157,
      "be": 158,
      "There": 159,
      "right": 160,
      "ural": 161,
      "pleural": 162,
      "OR": 163,
      "tu": 164,
      "ax": 165,
      "AT": 166,
      "ab": 167,
      "thorax": 168,
      "lo": 169,
      "ation": 170,
      "pneumo": 171,
      "ast": 172,
      "________": 173,
      "ear": 174,
      "pneumothorax": 175,
      "lung": 176,
      "ang": 177,
      "ter": 178,
      "ardi": 179,
      "ma": 180,
      "ic": 181,
      "ORT": 182,
      "PORT": 183,
      "ormal": 184,
      "to": 185,
      "edi": 186,
      "normal": 187,
      "ro": 188,
      "ION": 189,
      "chang": 190,
      "No": 191,
      "ATION": 192,
      "astin": 193,
      "ediastin": 194,
      "ft": 195,
      "mon": 196,
      "left": 197,
      "ph": 198,
      "ediastinal": 199,
      "at": 200,
      "res": 201,
      "ct": 202,
      "hest": 203,
      "cardi": 204,
      "it": 205,
      "AL": 206,
      "RE": 207,
      "pp": 208,
      "ary": 209,
      "li": 210,
      "CH": 211,
      "chest": 212,
      "ST": 213,
      "ev": 214,
      "op": 215,
      "able": 216,
      "ulmon": 217,
      "ulmonary": 218,
      "ilar": 219,
      "FIN": 220,
      "FINAL": 221,
      "REPORT": 222,
      "low": 223,
      "ve": 224,
      "vi": 225,
      "IC": 226,
      "ateral": 227,
      "cons": 228,
      "ous": 229,
      "et": 230,
      "EST": 231,
      "CHEST": 232,
      "pulmonary": 233,
      "par": 234,
      "seen": 235,
      "cal": 236,
      "po": 237,
      "hou": 238,
      "de": 239,
      "su": 240,
      "cle": 241,
      "changed": 242,
      "AP": 243,
      "PA": 244,
      "ce": 245,
      "lect": 246,
      "opac": 247,
      "for": 248,
      "olid": 249,
      "consolid": 250,
      "ex": 251,
      "consolidation": 252,
      "sil": 253,
      "AM": 254,
      "houet": 255,
      "silhouet": 256,
      "com": 257,
      "silhouette": 258,
      "rior": 259,
      "our": 260,
      "cont": 261,
      "pro": 262,
      "og": 263,
      "old": 264,
      "clear": 265,
      "ema": 266,
      "unchanged": 267,
      "EX": 268,
      "EXAM": 269,
      "DIC": 270,
      "DICATION": 271,
      "INDICATION": 272,
      "contour": 273,
      "________________": 274,
      "year": 275,
      "val": 276,
      "bas": 277,
      "fo": 278,
      "siz": 279,
      "tube": 280,
      "atelect": 281,
      "ted": 282,
      "INATION": 283,
      "EXAMINATION": 284,
      "ew": 285,
      "asis": 286,
      "size": 287,
      "edema": 288,
      "focal": 289,
      "app": 290,
      "ati": 291,
      "atelectasis": 292,
      "fr": 293,
      "ild": 294,
      "ogra": 295,
      "ity": 296,
      "radi": 297,
      "contours": 298,
      "inter": 299,
      "ograph": 300,
      "//": 301,
      "AB": 302,
      "LE": 303,
      "cul": 304,
      "ated": 305,
      "lungs": 306,
      "radiograph": 307,
      "omediastinal": 308,
      "ia": 309,
      "view": 310,
      "prior": 311,
      "mo": 312,
      "ver": 313,
      "iti": 314,
      "hilar": 315,
      "der": 316,
      "mediastinal": 317,
      "ort": 318,
      "ities": 319,
      "iden": 320,
      "arg": 321,
      "ABLE": 322,
      "ain": 323,
      "PORTABLE": 324,
      "cardiac": 325,
      "ment": 326,
      "lateral": 327,
      "str": 328,
      "pres": 329,
      "ten": 330,
      "ascul": 331,
      "larg": 332,
      "min": 333,
      "vascul": 334,
      "if": 335,
      "SON": 336,
      "ud": 337,
      "pl": 338,
      "compar": 339,
      "cre": 340,
      "ad": 341,
      "ark": 342,
      "vol": 343,
      "mild": 344,
      "mark": 345,
      "creas": 346,
      "appear": 347,
      "lower": 348,
      "pneumon": 349,
      "we": 350,
      "volum": 351,
      "ine": 352,
      "os": 353,
      "tr": 354,
      "CO": 355,
      "not": 356,
      "pneumonia": 357,
      "ace": 358,
      "over": 359,
      "mall": 360,
      "interval": 361,
      "inf": 362,
      "ag": 363,
      "present": 364,
      "has": 365,
      "ess": 366,
      "RI": 367,
      "change": 368,
      "ilateral": 369,
      "pper": 370,
      "ron": 371,
      "COM": 372,
      "noted": 373,
      "COMPA": 374,
      "pre": 375,
      "RISON": 376,
      "COMPARISON": 377,
      "upper": 378,
      "opacity": 379,
      "posi": 380,
      "stable": 381,
      "cardiomediastinal": 382,
      "art": 383,
      "heart": 384,
      "position": 385,
      "ute": 386,
      "ke": 387,
      "effusions": 388,
      "from": 389,
      "pe": 390,
      "stud": 391,
      "study": 392,
      "dis": 393,
      "mi": 394,
      "markable": 395,
      "remarkable": 396,
      "within": 397,
      "there": 398,
      "eval": 399,
      "tures": 400,
      "unremarkable": 401,
      "derate": 402,
      "acute": 403,
      "vascular": 404,
      "mit": 405,
      "ific": 406,
      "Cardi": 407,
      "volumes": 408,
      "out": 409,
      "man": 410,
      "pati": 411,
      "fi": 412,
      "uc": 413,
      "opacities": 414,
      "ca": 415,
      "tip": 416,
      "lobe": 417,
      "bilateral": 418,
      "like": 419,
      "idence": 420,
      "cl": 421,
      "tial": 422,
      "ob": 423,
      "creased": 424,
      "per": 425,
      "hi": 426,
      "small": 427,
      "ome": 428,
      "evidence": 429,
      "dia": 430,
      "seous": 431,
      "oman": 432,
      "woman": 433,
      "atu": 434,
      "likely": 435,
      "place": 436,
      "ir": 437,
      "vious": 438,
      "Lung": 439,
      "tal": 440,
      "ison": 441,
      "ical": 442,
      "sp": 443,
      "rag": 444,
      "tent": 445,
      "compared": 446,
      "enlarg": 447,
      "diaph": 448,
      "diaphrag": 449,
      "du": 450,
      "ded": 451,
      "ll": 452,
      "cent": 453,
      "abnormal": 454,
      "ant": 455,
      "ges": 456,
      "views": 457,
      "mid": 458,
      "limit": 459,
      "ass": 460,
      "struc": 461,
      "thorac": 462,
      "osseous": 463,
      "diaphragm": 464,
      "patient": 465,
      "im": 466,
      "ss": 467,
      "ction": 468,
      "ates": 469,
      "new": 470,
      "ut": 471,
      "________________________________": 472,
      "previous": 473,
      "sis": 474,
      "tor": 475,
      "Hear": 476,
      "limits": 477,
      "Heart": 478,
      "ND": 479,
      "ough": 480,
      "basilar": 481,
      "sub": 482,
      "hemi": 483,
      "structures": 484,
      "demon": 485,
      "without": 486,
      "prov": 487,
      "line": 488,
      "In": 489,
      "base": 490,
      "ther": 491,
      "moderate": 492,
      "AND": 493,
      "air": 494,
      "car": 495,
      "LAT": 496,
      "tic": 497,
      "demonstr": 498,
      "aly": 499,
      "been": 500,
      "placement": 501,
      "termin": 502,
      "omy": 503,
      "sided": 504,
      "whi": 505,
      "am": 506,
      "rib": 507,
      "trac": 508,
      "enlarged": 509,
      "qu": 510,
      "ding": 511,
      "again": 512,
      "which": 513,
      "ld": 514,
      "now": 515,
      "hy": 516,
      "well": 517,
      "theter": 518,
      "catheter": 519,
      "int": 520,
      "increased": 521,
      "ren": 522,
      "ap": 523,
      "conges": 524,
      "omeg": 525,
      "omegaly": 526,
      "imal": 527,
      "light": 528,
      "changes": 529,
      "ase": 530,
      "ification": 531,
      "but": 532,
      "gn": 533,
      "main": 534,
      "thoracic": 535,
      "radiographs": 536,
      "ight": 537,
      "identi": 538,
      "pos": 539,
      "Cardiomediastinal": 540,
      "fied": 541,
      "identified": 542,
      "ow": 543,
      "cu": 544,
      "pi": 545,
      "congestion": 546,
      "hemidiaphragm": 547,
      "comparison": 548,
      "may": 549,
      "slight": 550,
      "VC": 551,
      "ting": 552,
      "ge": 553,
      "trache": 554,
      "Right": 555,
      "ven": 556,
      "cardiomegaly": 557,
      "chy": 558,
      "large": 559,
      "up": 560,
      "remain": 561,
      "je": 562,
      "ative": 563,
      "SVC": 564,
      "CT": 565,
      "sti": 566,
      "ET": 567,
      "ric": 568,
      "Lungs": 569,
      "end": 570,
      "orta": 571,
      "Com": 572,
      "proje": 573,
      "ince": 574,
      "abnormalities": 575,
      "frac": 576,
      "cm": 577,
      "Mild": 578,
      "ration": 579,
      "aorta": 580,
      "post": 581,
      "calc": 582,
      "ortable": 583,
      "ening": 584,
      "Compar": 585,
      "omin": 586,
      "REA": 587,
      "sign": 588,
      "act": 589,
      "Lef": 590,
      "Left": 591,
      "oph": 592,
      "ature": 593,
      "uate": 594,
      "were": 595,
      "cer": 596,
      "tain": 597,
      "ost": 598,
      "def": 599,
      "ble": 600,
      "so": 601,
      "infe": 602,
      "project": 603,
      "obtain": 604,
      "obtained": 605,
      "tub": 606,
      "ree": 607,
      "appears": 608,
      "intact": 609,
      "vasculature": 610,
      "ibasilar": 611,
      "terminates": 612,
      "iz": 613,
      "ha": 614,
      "ular": 615,
      "ever": 616,
      "dev": 617,
      "all": 618,
      "ER": 619,
      "ath": 620,
      "ref": 621,
      "fl": 622,
      "assess": 623,
      "this": 624,
      "slightly": 625,
      "since": 626,
      "ach": 627,
      "ise": 628,
      "atri": 629,
      "sug": 630,
      "PIC": 631,
      "dif": 632,
      "other": 633,
      "due": 634,
      "wor": 635,
      "PICC": 636,
      "one": 637,
      "ail": 638,
      "wise": 639,
      "stitial": 640,
      "peri": 641,
      "most": 642,
      "As": 643,
      "spine": 644,
      "interstitial": 645,
      "mildly": 646,
      "appro": 647,
      "also": 648,
      "ulti": 649,
      "ance": 650,
      "ould": 651,
      "by": 652,
      "ronch": 653,
      "bo": 654,
      "represent": 655,
      "Fron": 656,
      "Frontal": 657,
      "NG": 658,
      "gi": 659,
      "tory": 660,
      "lead": 661,
      "was": 662,
      "carin": 663,
      "sim": 664,
      "oun": 665,
      "Mediastinal": 666,
      "exam": 667,
      "atus": 668,
      "reflect": 669,
      "HI": 670,
      "omach": 671,
      "below": 672,
      "similar": 673,
      "stomach": 674,
      "tro": 675,
      "us": 676,
      "lated": 677,
      "clud": 678,
      "upright": 679,
      "tracheal": 680,
      "carina": 681,
      "ore": 682,
      "sh": 683,
      "ay": 684,
      "FOR": 685,
      "lev": 686,
      "improv": 687,
      "ediastinum": 688,
      "can": 689,
      "aliz": 690,
      "flu": 691,
      "persis": 692,
      "ster": 693,
      "ortic": 694,
      "consis": 695,
      "ORY": 696,
      "STORY": 697,
      "HISTORY": 698,
      "ged": 699,
      "consistent": 700,
      "ring": 701,
      "vis": 702,
      "romin": 703,
      "silhouettes": 704,
      "tially": 705,
      "REASON": 706,
      "free": 707,
      "recent": 708,
      "central": 709,
      "cted": 710,
      "otracheal": 711,
      "ificant": 712,
      "remo": 713,
      "den": 714,
      "infil": 715,
      "have": 716,
      "pac": 717,
      "ty": 718,
      "improved": 719,
      "appearance": 720,
      "erative": 721,
      "Eval": 722,
      "Cardiac": 723,
      "minimal": 724,
      "ove": 725,
      "infiltr": 726,
      "ided": 727,
      "provided": 728,
      "paren": 729,
      "significant": 730,
      "Chest": 731,
      "cern": 732,
      "above": 733,
      "pand": 734,
      "tortu": 735,
      "panded": 736,
      "status": 737,
      "bronch": 738,
      "gen": 739,
      "made": 740,
      "parenchy": 741,
      "evaluate": 742,
      "terior": 743,
      "concern": 744,
      "defin": 745,
      "col": 746,
      "ard": 747,
      "abd": 748,
      "could": 749,
      "bases": 750,
      "notomy": 751,
      "ci": 752,
      "ved": 753,
      "sur": 754,
      "retro": 755,
      "cess": 756,
      "lip": 757,
      "ture": 758,
      "lying": 759,
      "alized": 760,
      "remains": 761,
      "promin": 762,
      "than": 763,
      "ied": 764,
      "though": 765,
      "his": 766,
      "abnormality": 767,
      "Mo": 768,
      "unction": 769,
      "retrocardiac": 770,
      "opacification": 771,
      "Moderate": 772,
      "wors": 773,
      "bibasilar": 774,
      "aortic": 775,
      "ence": 776,
      "ross": 777,
      "Comparison": 778,
      "expanded": 779,
      "ima": 780,
      "ony": 781,
      "mediastinum": 782,
      "astric": 783,
      "red": 784,
      "ingle": 785,
      "lips": 786,
      "demonstrated": 787,
      "gest": 788,
      "nal": 789,
      "junction": 790,
      "top": 791,
      "suggest": 792,
      "TH": 793,
      "renic": 794,
      "gion": 795,
      "sternotomy": 796,
      "vel": 797,
      "IE": 798,
      "ophrenic": 799,
      "level": 800,
      "hyper": 801,
      "fe": 802,
      "ju": 803,
      "infection": 804,
      "amin": 805,
      "region": 806,
      "ualized": 807,
      "gross": 808,
      "parenchymal": 809,
      "inding": 810,
      "possi": 811,
      "piration": 812,
      "ronic": 813,
      "Small": 814,
      "fluid": 815,
      "amination": 816,
      "cost": 817,
      "aspiration": 818,
      "tive": 819,
      "cluded": 820,
      "examination": 821,
      "VIE": 822,
      "VIEW": 823,
      "vent": 824,
      "ong": 825,
      "venous": 826,
      "side": 827,
      "An": 828,
      "ified": 829,
      "process": 830,
      "mph": 831,
      "portable": 832,
      "Ple": 833,
      "generative": 834,
      "PM": 835,
      "fracture": 836,
      "devic": 837,
      "sity": 838,
      "ure": 839,
      "increas": 840,
      "otherwise": 841,
      "THE": 842,
      "atrium": 843,
      "more": 844,
      "cla": 845,
      "apical": 846,
      "concerning": 847,
      "________________________________________________________________": 848,
      "costophrenic": 849,
      "volume": 850,
      "calcification": 851,
      "Su": 852,
      "ating": 853,
      "ERAL": 854,
      "visualized": 855,
      "______": 856,
      "______________": 857,
      "______________________________________________________________________________": 858,
      "scar": 859,
      "LATERAL": 860,
      "angle": 861,
      "dy": 862,
      "Pulmonary": 863,
      "endotracheal": 864,
      "inflated": 865,
      "day": 866,
      "sive": 867,
      "ventri": 868,
      "omen": 869,
      "fractures": 870,
      "uation": 871,
      "multi": 872,
      "ite": 873,
      "abdomen": 874,
      "wires": 875,
      "owever": 876,
      "grossly": 877,
      "fuse": 878,
      "OF": 879,
      "tortuous": 880,
      "ced": 881,
      "clips": 882,
      "ately": 883,
      "infiltrate": 884,
      "demonstrate": 885,
      "indings": 886,
      "inear": 887,
      "exten": 888,
      "af": 889,
      "fil": 890,
      "ontal": 891,
      "intub": 892,
      "projecting": 893,
      "that": 894,
      "excluded": 895,
      "rel": 896,
      "Un": 897,
      "des": 898,
      "worsening": 899,
      "frontal": 900,
      "age": 901,
      "scarring": 902,
      "cur": 903,
      "medi": 904,
      "definite": 905,
      "CHF": 906,
      "PN": 907,
      "chronic": 908,
      "St": 909,
      "ogastric": 910,
      "plac": 911,
      "calcified": 912,
      "Portable": 913,
      "after": 914,
      "osis": 915,
      "TE": 916,
      "gical": 917,
      "placed": 918,
      "dist": 919,
      "me": 920,
      "UE": 921,
      "NI": 922,
      "cough": 923,
      "issu": 924,
      "cor": 925,
      "QUE": 926,
      "decreased": 927,
      "CHNI": 928,
      "TECHNI": 929,
      "TECHNIQUE": 930,
      "PNA": 931,
      "ease": 932,
      "pul": 933,
      "persistent": 934,
      "elev": 935,
      "met": 936,
      "hil": 937,
      "tle": 938,
      "gular": 939,
      "disease": 940,
      "seve": 941,
      "ably": 942,
      "AD": 943,
      "off": 944,
      "hypo": 945,
      "thr": 946,
      "under": 947,
      "bet": 948,
      "nown": 949,
      "film": 950,
      "atchy": 951,
      "ratory": 952,
      "order": 953,
      "degenerative": 954,
      "lun": 955,
      "some": 956,
      "cav": 957,
      "space": 958,
      "Unchanged": 959,
      "IJ": 960,
      "ciated": 961,
      "through": 962,
      "please": 963,
      "dete": 964,
      "findings": 965,
      "review": 966,
      "ker": 967,
      "posterior": 968,
      "Bilateral": 969,
      "Bony": 970,
      "lunting": 971,
      "Compared": 972,
      "ution": 973,
      "approx": 974,
      "cy": 975,
      "SION": 976,
      "wall": 977,
      "resol": 978,
      "ak": 979,
      "fail": 980,
      "rent": 981,
      "approxim": 982,
      "leads": 983,
      "failure": 984,
      "gor": 985,
      "detected": 986,
      "asogastric": 987,
      "approximately": 988,
      "ck": 989,
      "pri": 990,
      "En": 991,
      "areas": 992,
      "dule": 993,
      "engor": 994,
      "ult": 995,
      "que": 996,
      "emaker": 997,
      "jugular": 998,
      "set": 999,
      "Please": 1000,
      "FR": 1001,
      "ick": 1002,
      "atic": 1003,
      "fic": 1004,
      "diffuse": 1005,
      "OG": 1006,
      "clin": 1007,
      "better": 1008,
      "nodule": 1009,
      "prob": 1010,
      "reviewed": 1011,
      "Min": 1012,
      "ventricle": 1013,
      "along": 1014,
      "obs": 1015,
      "ente": 1016,
      "thick": 1017,
      "distal": 1018,
      "oma": 1019,
      "form": 1020,
      "terminating": 1021,
      "ement": 1022,
      "marking": 1023,
      "overt": 1024,
      "enlargement": 1025,
      "appropri": 1026,
      "both": 1027,
      "cannot": 1028,
      "clinical": 1029,
      "Single": 1030,
      "ONT": 1031,
      "markings": 1032,
      "Inter": 1033,
      "Minimal": 1034,
      "hyperinflated": 1035,
      "FRONT": 1036,
      "FRONTAL": 1037,
      "calcifications": 1038,
      "projects": 1039,
      "known": 1040,
      "inu": 1041,
      "pacemaker": 1042,
      "severe": 1043,
      "fever": 1044,
      "ater": 1045,
      "removed": 1046,
      "CAB": 1047,
      "internal": 1048,
      "Other": 1049,
      "dual": 1050,
      "increase": 1051,
      "CABG": 1052,
      "compati": 1053,
      "bilaterally": 1054,
      "compatible": 1055,
      "atrial": 1056,
      "current": 1057,
      "loss": 1058,
      "row": 1059,
      "demonstrates": 1060,
      "cour": 1061,
      "ING": 1062,
      "ends": 1063,
      "thickening": 1064,
      "This": 1065,
      "earli": 1066,
      "earlier": 1067,
      "CL": 1068,
      "pt": 1069,
      "esoph": 1070,
      "prominence": 1071,
      "gain": 1072,
      "ness": 1073,
      "vement": 1074,
      "cular": 1075,
      "however": 1076,
      "ack": 1077,
      "Again": 1078,
      "removal": 1079,
      "linear": 1080,
      "pain": 1081,
      "hoff": 1082,
      "area": 1083,
      "shou": 1084,
      "ovascular": 1085,
      "devices": 1086,
      "intubated": 1087,
      "consolidations": 1088,
      "lap": 1089,
      "stan": 1090,
      "Otherwise": 1091,
      "setting": 1092,
      "vian": 1093,
      "basal": 1094,
      "subcla": 1095,
      "elo": 1096,
      "subclavian": 1097,
      "Interval": 1098,
      "mass": 1099,
      "Bibasilar": 1100,
      "provement": 1101,
      "elop": 1102,
      ".,": 1103,
      "Multi": 1104,
      "bre": 1105,
      "density": 1106,
      "mitted": 1107,
      "airspace": 1108,
      "fac": 1109,
      "develop": 1110,
      "nasogastric": 1111,
      "piratory": 1112,
      "appropriate": 1113,
      "pon": 1114,
      "bronchovascular": 1115,
      "overlying": 1116,
      "obscu": 1117,
      "hypox": 1118,
      "prominent": 1119,
      "port": 1120,
      "lowing": 1121,
      "perform": 1122,
      "improvement": 1123,
      "mphy": 1124,
      "mphyse": 1125,
      "sugges": 1126,
      "mphysema": 1127,
      "rant": 1128,
      "acent": 1129,
      "persist": 1130,
      "jacent": 1131,
      "substan": 1132,
      "quad": 1133,
      "perihilar": 1134,
      "load": 1135,
      "gre": 1136,
      "Dr": 1137,
      "pport": 1138,
      "ds": 1139,
      "emphysema": 1140,
      "ni": 1141,
      "diffic": 1142,
      "elevation": 1143,
      "rowding": 1144,
      "Port": 1145,
      "tissu": 1146,
      "possib": 1147,
      "quadrant": 1148,
      "whe": 1149,
      "overload": 1150,
      "hila": 1151,
      "Low": 1152,
      "blunting": 1153,
      "ostomy": 1154,
      "SING": 1155,
      "border": 1156,
      "rect": 1157,
      "median": 1158,
      "SINGLE": 1159,
      "pan": 1160,
      "orm": 1161,
      "continu": 1162,
      "her": 1163,
      "ociated": 1164,
      "led": 1165,
      "pected": 1166,
      "itor": 1167,
      "previously": 1168,
      "co": 1169,
      "eous": 1170,
      "greater": 1171,
      "Normal": 1172,
      "eld": 1173,
      "field": 1174,
      "cavo": 1175,
      "cavoatrial": 1176,
      "probably": 1177,
      "zy": 1178,
      "positioning": 1179,
      "av": 1180,
      "arch": 1181,
      "possible": 1182,
      "Cath": 1183,
      "adjacent": 1184,
      "multiple": 1185,
      "associated": 1186,
      "Ima": 1187,
      "crowding": 1188,
      "compres": 1189,
      "difficult": 1190,
      "VER": 1191,
      "oft": 1192,
      "respiratory": 1193,
      "itoring": 1194,
      "perior": 1195,
      "deform": 1196,
      "displaced": 1197,
      "hemithorax": 1198,
      "loc": 1199,
      "Evaluation": 1200,
      "relative": 1201,
      "ount": 1202,
      "although": 1203,
      "ans": 1204,
      "umer": 1205,
      "Imaged": 1206,
      "RAD": 1207,
      "APH": 1208,
      "soft": 1209,
      "READ": 1210,
      "history": 1211,
      "RADI": 1212,
      "WET": 1213,
      "support": 1214,
      "underlying": 1215,
      "RAPH": 1216,
      "moderately": 1217,
      "OGRAPH": 1218,
      "RADIOGRAPH": 1219,
      "PD": 1220,
      "tech": 1221,
      "pect": 1222,
      "performed": 1223,
      "ending": 1224,
      "vascularity": 1225,
      "Evaluate": 1226,
      "Pati": 1227,
      "ym": 1228,
      "Patient": 1229,
      "comple": 1230,
      "reak": 1231,
      "rh": 1232,
      "patchy": 1233,
      "any": 1234,
      "imaged": 1235,
      "rotic": 1236,
      "signs": 1237,
      "body": 1238,
      "10": 1239,
      "dra": 1240,
      "VERSION": 1241,
      "gres": 1242,
      "PT": 1243,
      "dition": 1244,
      "tension": 1245,
      "dle": 1246,
      "collap": 1247,
      "surgical": 1248,
      "gt": 1249,
      "Ass": 1250,
      "dies": 1251,
      "tubes": 1252,
      "complete": 1253,
      "cti": 1254,
      "VIEWS": 1255,
      "rac": 1256,
      "lymph": 1257,
      "show": 1258,
      "ctious": 1259,
      "back": 1260,
      "hat": 1261,
      "Sur": 1262,
      "teb": 1263,
      "pnea": 1264,
      "breath": 1265,
      "reaky": 1266,
      "infectious": 1267,
      "accent": 1268,
      "middle": 1269,
      "apex": 1270,
      "kno": 1271,
      "monitoring": 1272,
      "knob": 1273,
      "aer": 1274,
      "bar": 1275,
      "ger": 1276,
      "ally": 1277,
      "superior": 1278,
      "ETT": 1279,
      "distrib": 1280,
      "ur": 1281,
      "less": 1282,
      "relev": 1283,
      "trans": 1284,
      "pulm": 1285,
      "relevant": 1286,
      "single": 1287,
      "stand": 1288,
      "gr": 1289,
      "scle": 1290,
      "ctomy": 1291,
      "New": 1292,
      "Assess": 1293,
      "ques": 1294,
      "por": 1295,
      "resi": 1296,
      "desc": 1297,
      "coli": 1298,
      "COPD": 1299,
      "collapse": 1300,
      "omew": 1301,
      "pn": 1302,
      "vic": 1303,
      "submitted": 1304,
      "gtail": 1305,
      "Al": 1306,
      "Dob": 1307,
      "PTX": 1308,
      "omewhat": 1309,
      "confi": 1310,
      "techni": 1311,
      "overall": 1312,
      "technique": 1313,
      "ident": 1314,
      "spi": 1315,
      "nia": 1316,
      "sus": 1317,
      "coliosis": 1318,
      "ho": 1319,
      "verteb": 1320,
      "clu": 1321,
      "End": 1322,
      "ollow": 1323,
      "progres": 1324,
      "faces": 1325,
      "tissue": 1326,
      "somewhat": 1327,
      "anterior": 1328,
      "male": 1329,
      "sup": 1330,
      "surfaces": 1331,
      "suggestive": 1332,
      "hernia": 1333,
      "into": 1334,
      "device": 1335,
      "ign": 1336,
      "cond": 1337,
      "rot": 1338,
      "pigtail": 1339,
      "distribution": 1340,
      "ximal": 1341,
      "hemo": 1342,
      "ound": 1343,
      "partially": 1344,
      "second": 1345,
      "proximal": 1346,
      "perim": 1347,
      "standard": 1348,
      "bin": 1349,
      "ful": 1350,
      "ymmet": 1351,
      "osity": 1352,
      "fib": 1353,
      "suggesting": 1354,
      "clavic": 1355,
      "ial": 1356,
      "combin": 1357,
      "essen": 1358,
      "dular": 1359,
      "humer": 1360,
      "essentially": 1361,
      "enteric": 1362,
      "Multiple": 1363,
      "Endotracheal": 1364,
      "semi": 1365,
      "stent": 1366,
      "appre": 1367,
      "its": 1368,
      "Re": 1369,
      "scoliosis": 1370,
      "includ": 1371,
      "mited": 1372,
      "NGT": 1373,
      "infiltrates": 1374,
      "bony": 1375,
      "ves": 1376,
      "zone": 1377,
      "ICAL": 1378,
      "posed": 1379,
      "Surgical": 1380,
      "sclerotic": 1381,
      "Os": 1382,
      "ill": 1383,
      "perimposed": 1384,
      "ware": 1385,
      "resolved": 1386,
      "hypoxia": 1387,
      "11": 1388,
      "INICAL": 1389,
      "Stable": 1390,
      "CLINICAL": 1391,
      "relatively": 1392,
      "vein": 1393,
      "pna": 1394,
      "ward": 1395,
      "extent": 1396,
      "diffe": 1397,
      "wo": 1398,
      "short": 1399,
      "uated": 1400,
      "ittle": 1401,
      "ailable": 1402,
      "persists": 1403,
      "engorged": 1404,
      "location": 1405,
      "ardware": 1406,
      "available": 1407,
      "vertebral": 1408,
      "clude": 1409,
      "Pre": 1410,
      "marked": 1411,
      "still": 1412,
      "amount": 1413,
      "Osseous": 1414,
      "aneous": 1415,
      "nodules": 1416,
      "minimally": 1417,
      "Con": 1418,
      "udies": 1419,
      "studies": 1420,
      "given": 1421,
      "related": 1422,
      "expected": 1423,
      "valve": 1424,
      "subse": 1425,
      "em": 1426,
      "significantly": 1427,
      "ray": 1428,
      "qui": 1429,
      "residual": 1430,
      "combination": 1431,
      "hardware": 1432,
      "ste": 1433,
      "time": 1434,
      "mental": 1435,
      "substantial": 1436,
      "cut": 1437,
      "thero": 1438,
      "exis": 1439,
      "ticular": 1440,
      "adv": 1441,
      "tery": 1442,
      "superimposed": 1443,
      "drain": 1444,
      "athy": 1445,
      "ility": 1446,
      "trace": 1447,
      "image": 1448,
      "increasing": 1449,
      "ving": 1450,
      "inspi": 1451,
      "tortuosity": 1452,
      "portion": 1453,
      "little": 1454,
      "stant": 1455,
      "cours": 1456,
      "differen": 1457,
      "tra": 1458,
      "artery": 1459,
      "ame": 1460,
      "pical": 1461,
      "gement": 1462,
      "esophag": 1463,
      "cutaneous": 1464,
      "conflu": 1465,
      "Hilar": 1466,
      "crease": 1467,
      "dys": 1468,
      "including": 1469,
      "therosclerotic": 1470,
      "xt": 1471,
      "lob": 1472,
      "evaluation": 1473,
      "intra": 1474,
      "trachea": 1475,
      "teri": 1476,
      "nodular": 1477,
      "section": 1478,
      "engorgement": 1479,
      "same": 1480,
      "phone": 1481,
      "exclude": 1482,
      "assessment": 1483,
      "sel": 1484,
      "arent": 1485,
      "umbar": 1486,
      "On": 1487,
      "recently": 1488,
      "should": 1489,
      "ones": 1490,
      "cardiop": 1491,
      "opathy": 1492,
      "cuss": 1493,
      "Sub": 1494,
      "cussed": 1495,
      "Since": 1496,
      "do": 1497,
      "extensive": 1498,
      "secondary": 1499,
      "lay": 1500,
      "question": 1501,
      "mor": 1502,
      "represents": 1503,
      "supine": 1504,
      "12": 1505,
      "However": 1506,
      "bef": 1507,
      "atal": 1508,
      "before": 1509,
      "deformity": 1510,
      "bhoff": 1511,
      "Increased": 1512,
      "metast": 1513,
      "advan": 1514,
      "fold": 1515,
      "ened": 1516,
      "multifocal": 1517,
      "Dobbhoff": 1518,
      "esophagus": 1519,
      "constant": 1520,
      "positioned": 1521,
      "asymmet": 1522,
      "ering": 1523,
      "comm": 1524,
      "humeral": 1525,
      "limited": 1526,
      "vessel": 1527,
      "Patchy": 1528,
      "Cardiomegaly": 1529,
      "ptx": 1530,
      "completely": 1531,
      "adi": 1532,
      "decrease": 1533,
      "course": 1534,
      "Previous": 1535,
      "De": 1536,
      "IL": 1537,
      "bi": 1538,
      "heal": 1539,
      "aeration": 1540,
      "advanced": 1541,
      "vs": 1542,
      "operative": 1543,
      "intubation": 1544,
      "larger": 1545,
      "hiatal": 1546,
      "follow": 1547,
      "wan": 1548,
      "lesion": 1549,
      "___M": 1550,
      "thoraces": 1551,
      "poten": 1552,
      "olog": 1553,
      "preced": 1554,
      "layering": 1555,
      "preceding": 1556,
      "Radi": 1557,
      "existing": 1558,
      "cardiopulmonary": 1559,
      "AR": 1560,
      "eding": 1561,
      "respon": 1562,
      "hour": 1563,
      "assessed": 1564,
      "resolution": 1565,
      "lder": 1566,
      "would": 1567,
      "esophage": 1568,
      "possibly": 1569,
      "cir": 1570,
      "dated": 1571,
      "subtle": 1572,
      "shoulder": 1573,
      "lobes": 1574,
      "discussed": 1575,
      "lation": 1576,
      "long": 1577,
      "confluent": 1578,
      "VR": 1579,
      "ines": 1580,
      "aden": 1581,
      "dyspnea": 1582,
      "least": 1583,
      "shortness": 1584,
      "Dif": 1585,
      "Ex": 1586,
      "ces": 1587,
      "addition": 1588,
      "Prior": 1589,
      "gu": 1590,
      "gree": 1591,
      "Per": 1592,
      "sep": 1593,
      "evident": 1594,
      "Medi": 1595,
      "sin": 1596,
      "atten": 1597,
      "sure": 1598,
      "pacer": 1599,
      "invol": 1600,
      "redistribution": 1601,
      "neck": 1602,
      "compression": 1603,
      "XR": 1604,
      "locul": 1605,
      "ations": 1606,
      "degree": 1607,
      "suggests": 1608,
      "sinus": 1609,
      "Radiograph": 1610,
      "tracheostomy": 1611,
      "fissu": 1612,
      "who": 1613,
      "inc": 1614,
      "anul": 1615,
      "next": 1616,
      "compl": 1617,
      "obscured": 1618,
      "extends": 1619,
      "granul": 1620,
      "Linear": 1621,
      "pic": 1622,
      "heck": 1623,
      "inal": 1624,
      "elevated": 1625,
      "pen": 1626,
      "achy": 1627,
      "tre": 1628,
      "unfold": 1629,
      "extending": 1630,
      "pneumothoraces": 1631,
      "jo": 1632,
      "cancer": 1633,
      "sed": 1634,
      "alc": 1635,
      "very": 1636,
      "joint": 1637,
      "od": 1638,
      "subcutaneous": 1639,
      "hours": 1640,
      "complic": 1641,
      "CON": 1642,
      "Over": 1643,
      "ICD": 1644,
      "worsened": 1645,
      "Calc": 1646,
      "part": 1647,
      "possibility": 1648,
      "apparent": 1649,
      "tachy": 1650,
      "angles": 1651,
      "vessels": 1652,
      "CXR": 1653,
      "domin": 1654,
      "ible": 1655,
      "iny": 1656,
      "ventricular": 1657,
      "esophageal": 1658,
      "SO": 1659,
      "Streaky": 1660,
      "development": 1661,
      "courses": 1662,
      "Persis": 1663,
      "ging": 1664,
      "extub": 1665,
      "sternal": 1666,
      "differences": 1667,
      "Median": 1668,
      "luc": 1669,
      "gery": 1670,
      "Previously": 1671,
      "loculated": 1672,
      "versus": 1673,
      "inferior": 1674,
      "Degenerative": 1675,
      "potentially": 1676,
      "fissure": 1677,
      "aspect": 1678,
      "ency": 1679,
      "worse": 1680,
      "dense": 1681,
      "adenopathy": 1682,
      "sy": 1683,
      "alysis": 1684,
      "surgery": 1685,
      "USION": 1686,
      "azy": 1687,
      "lies": 1688,
      "ominal": 1689,
      "female": 1690,
      "shows": 1691,
      "Persistent": 1692,
      "gastric": 1693,
      "acc": 1694,
      "reflects": 1695,
      "defined": 1696,
      "abdominal": 1697,
      "correspon": 1698,
      "FIL": 1699,
      "Opac": 1700,
      "ule": 1701,
      "minor": 1702,
      "predomin": 1703,
      "Ster": 1704,
      "edge": 1705,
      "midline": 1706,
      "hazy": 1707,
      "rhosis": 1708,
      "ology": 1709,
      "Ch": 1710,
      "LL": 1711,
      "Slight": 1712,
      "gmental": 1713,
      "resection": 1714,
      "note": 1715,
      "presence": 1716,
      "hift": 1717,
      "Diffuse": 1718,
      "guration": 1719,
      "ling": 1720,
      "shift": 1721,
      "pec": 1722,
      "pulled": 1723,
      "requi": 1724,
      "eve": 1725,
      "cus": 1726,
      "ponent": 1727,
      "configuration": 1728,
      "progression": 1729,
      "appreciated": 1730,
      "FILM": 1731,
      "rex": 1732,
      "pread": 1733,
      "metastatic": 1734,
      "cirrhosis": 1735,
      "DS": 1736,
      "py": 1737,
      "visible": 1738,
      "compressive": 1739,
      "descending": 1740,
      "Ret": 1741,
      "non": 1742,
      "tis": 1743,
      "use": 1744,
      "dic": 1745,
      "wid": 1746,
      "olar": 1747,
      "matic": 1748,
      "itis": 1749,
      "component": 1750,
      "perex": 1751,
      "reflecting": 1752,
      "continued": 1753,
      "cop": 1754,
      "rest": 1755,
      "widen": 1756,
      "clavicular": 1757,
      "ris": 1758,
      "vical": 1759,
      "atelectatic": 1760,
      "roun": 1761,
      "two": 1762,
      "widened": 1763,
      "mm": 1764,
      "head": 1765,
      "allowing": 1766,
      "teric": 1767,
      "tered": 1768,
      "particular": 1769,
      "ceph": 1770,
      "ogen": 1771,
      "quent": 1772,
      "Pleural": 1773,
      "HT": 1774,
      "None": 1775,
      "inct": 1776,
      "recomm": 1777,
      "CLUSION": 1778,
      "CONCLUSION": 1779,
      "SOB": 1780,
      "cr": 1781,
      "indic": 1782,
      "tele": 1783,
      "disc": 1784,
      "distinct": 1785,
      "Enteric": 1786,
      "medial": 1787,
      "throughout": 1788,
      "Seve": 1789,
      "Severe": 1790,
      "Aortic": 1791,
      "lines": 1792,
      "rm": 1793,
      "developing": 1794,
      "traum": 1795,
      "Retro": 1796,
      "rosis": 1797,
      "trach": 1798,
      "entesis": 1799,
      "Ad": 1800,
      "onary": 1801,
      "exce": 1802,
      "diaphragmatic": 1803,
      "continues": 1804,
      "RADIOGRAPHS": 1805,
      "AVR": 1806,
      "Swan": 1807,
      "Retrocardiac": 1808,
      "alve": 1809,
      "streaky": 1810,
      "___F": 1811,
      "rahilar": 1812,
      "iapical": 1813,
      "parenchyma": 1814,
      "widening": 1815,
      "Border": 1816,
      "dob": 1817,
      "pass": 1818,
      "renal": 1819,
      "Borderline": 1820,
      "ry": 1821,
      "evaluated": 1822,
      "fields": 1823,
      "involving": 1824,
      "Blunting": 1825,
      "Hy": 1826,
      "disten": 1827,
      "ribed": 1828,
      "hilum": 1829,
      "tiny": 1830,
      "ank": 1831,
      "near": 1832,
      "oste": 1833,
      "might": 1834,
      "fully": 1835,
      "io": 1836,
      "ices": 1837,
      "flatten": 1838,
      "perip": 1839,
      "Th": 1840,
      "wel": 1841,
      "relate": 1842,
      "Allowing": 1843,
      "alveolar": 1844,
      "aque": 1845,
      "hemor": 1846,
      "replacement": 1847,
      "anz": 1848,
      "ended": 1849,
      "arge": 1850,
      "diaphragms": 1851,
      "hyperex": 1852,
      "telephone": 1853,
      "projection": 1854,
      "recommended": 1855,
      "hemorrh": 1856,
      "PE": 1857,
      "atherosclerotic": 1858,
      "ben": 1859,
      "only": 1860,
      "fur": 1861,
      "early": 1862,
      "today": 1863,
      "Status": 1864,
      "when": 1865,
      "confirm": 1866,
      "rotated": 1867,
      "markedly": 1868,
      "healed": 1869,
      "Overall": 1870,
      "ribs": 1871,
      "bowel": 1872,
      "Clips": 1873,
      "Promin": 1874,
      "conside": 1875,
      "apices": 1876,
      "pericardi": 1877,
      "ronchial": 1878,
      "alization": 1879,
      "just": 1880,
      "deformities": 1881,
      "considered": 1882,
      "ek": 1883,
      "erect": 1884,
      "fx": 1885,
      "tone": 1886,
      "wedge": 1887,
      "olumbar": 1888,
      "ula": 1889,
      "Ganz": 1890,
      "pleu": 1891,
      "dobhoff": 1892,
      "ond": 1893,
      "ator": 1894,
      "substantially": 1895,
      "where": 1896,
      "subsegmental": 1897,
      "inspiratory": 1898,
      "asymmetric": 1899,
      "oral": 1900,
      "overy": 1901,
      "caus": 1902,
      "described": 1903,
      "lucency": 1904,
      "check": 1905,
      "ei": 1906,
      "oc": 1907,
      "adow": 1908,
      "shadow": 1909,
      "lymphadenopathy": 1910,
      "hemothorax": 1911,
      "further": 1912,
      "Trac": 1913,
      "tus": 1914,
      "tosis": 1915,
      "terminate": 1916,
      "rotation": 1917,
      "ARDS": 1918,
      "unfolded": 1919,
      "discovery": 1920,
      "Pos": 1921,
      "vinc": 1922,
      "ties": 1923,
      "convinc": 1924,
      "newly": 1925,
      "images": 1926,
      "require": 1927,
      "convincing": 1928,
      "GE": 1929,
      "gra": 1930,
      "mia": 1931,
      "ures": 1932,
      "rep": 1933,
      "axill": 1934,
      "AS": 1935,
      "last": 1936,
      "clavicle": 1937,
      "subsequent": 1938,
      "hemorrhage": 1939,
      "ms": 1940,
      "agger": 1941,
      "probable": 1942,
      "pectoral": 1943,
      "Trache": 1944,
      "plate": 1945,
      "cervical": 1946,
      "feeding": 1947,
      "borderline": 1948,
      "requirement": 1949,
      "tensive": 1950,
      "representing": 1951,
      "Radiographs": 1952,
      "DE": 1953,
      "high": 1954,
      "diffusely": 1955,
      "pansion": 1956,
      "UM": 1957,
      "scan": 1958,
      "thoracolumbar": 1959,
      "hypertension": 1960,
      "repair": 1961,
      "15": 1962,
      "Post": 1963,
      "exagger": 1964,
      "frank": 1965,
      "plant": 1966,
      "coronary": 1967,
      "Addition": 1968,
      "At": 1969,
      "bones": 1970,
      "ress": 1971,
      "opaque": 1972,
      "pancre": 1973,
      "Chronic": 1974,
      "pericardial": 1975,
      "It": 1976,
      "duc": 1977,
      "ep": 1978,
      "eath": 1979,
      "compan": 1980,
      "proced": 1981,
      "pressure": 1982,
      "worris": 1983,
      "meter": 1984,
      "accentu": 1985,
      "longer": 1986,
      "granuloma": 1987,
      "beneath": 1988,
      "worrisome": 1989,
      "Findings": 1990,
      "these": 1991,
      "acer": 1992,
      "infrahilar": 1993,
      "accentuated": 1994,
      "appreci": 1995,
      "inspiration": 1996,
      "Large": 1997,
      "Mediastinum": 1998,
      "gast": 1999,
      "diameter": 2000,
      "),": 2001,
      "Pro": 2002,
      "arrest": 2003,
      "accompan": 2004,
      "peritone": 2005,
      "particularly": 2006,
      "cephal": 2007,
      "ib": 2008,
      "week": 2009,
      "distress": 2010,
      "ogeneous": 2011,
      "trauma": 2012,
      "Two": 2013,
      "fevers": 2014,
      "ground": 2015,
      "rounded": 2016,
      "except": 2017,
      "EM": 2018,
      "indistinct": 2019,
      "sities": 2020,
      "Extensive": 2021,
      "Tracheostomy": 2022,
      "Par": 2023,
      "rule": 2024,
      "arteri": 2025,
      "clearly": 2026,
      "ronoun": 2027,
      "densities": 2028,
      "stem": 2029,
      "pronoun": 2030,
      "diag": 2031,
      "open": 2032,
      "inflation": 2033,
      "lobectomy": 2034,
      "spinal": 2035,
      "bronchogra": 2036,
      "pecific": 2037,
      "Nasogastric": 2038,
      "ock": 2039,
      "loop": 2040,
      "result": 2041,
      "remaining": 2042,
      "suspected": 2043,
      "pronounced": 2044,
      "Mid": 2045,
      "date": 2046,
      "phy": 2047,
      "cell": 2048,
      "shock": 2049,
      "currently": 2050,
      "VAT": 2051,
      "sc": 2052,
      "sthe": 2053,
      "heral": 2054,
      "lecy": 2055,
      "dialysis": 2056,
      "sever": 2057,
      "thoracentesis": 2058,
      "cava": 2059,
      "aerated": 2060,
      "several": 2061,
      "Elev": 2062,
      "ot": 2063,
      "ocy": 2064,
      "inju": 2065,
      "miner": 2066,
      "admitted": 2067,
      "cause": 2068,
      "demonst": 2069,
      "postoperative": 2070,
      "diagno": 2071,
      "TB": 2072,
      "ith": 2073,
      "enti": 2074,
      "rity": 2075,
      "cho": 2076,
      "extre": 2077,
      "vena": 2078,
      "extubated": 2079,
      "AC": 2080,
      "Atherosclerotic": 2081,
      "OS": 2082,
      "These": 2083,
      "terogeneous": 2084,
      "deminer": 2085,
      "oscop": 2086,
      "severity": 2087,
      "fibrosis": 2088,
      "additional": 2089,
      "predominant": 2090,
      "20": 2091,
      "UL": 2092,
      "fat": 2093,
      "la": 2094,
      "radiopaque": 2095,
      "sepsis": 2096,
      "VATS": 2097,
      "yph": 2098,
      "align": 2099,
      "spic": 2100,
      "posteriorly": 2101,
      "azyg": 2102,
      "procedure": 2103,
      "bronchograms": 2104,
      "dro": 2105,
      "pat": 2106,
      "thy": 2107,
      "venti": 2108,
      "Subtle": 2109,
      "Sternotomy": 2110,
      "accompanied": 2111,
      "O2": 2112,
      "finding": 2113,
      "ors": 2114,
      "stro": 2115,
      "roid": 2116,
      "gastro": 2117,
      "AICD": 2118,
      "sul": 2119,
      "included": 2120,
      "omediastinum": 2121,
      "tern": 2122,
      "cardia": 2123,
      "hyperexpanded": 2124,
      "Possi": 2125,
      "05": 2126,
      "CV": 2127,
      "Du": 2128,
      "With": 2129,
      "iled": 2130,
      "wides": 2131,
      "obstruc": 2132,
      "either": 2133,
      "widespread": 2134,
      "14": 2135,
      "CP": 2136,
      "If": 2137,
      "fall": 2138,
      "xtro": 2139,
      "dextro": 2140,
      "ES": 2141,
      "Li": 2142,
      "cin": 2143,
      "el": 2144,
      "hx": 2145,
      "tem": 2146,
      "ollowing": 2147,
      "opti": 2148,
      "overlies": 2149,
      "examinations": 2150,
      "days": 2151,
      "cephalic": 2152,
      "Gi": 2153,
      "IS": 2154,
      "UP": 2155,
      "brac": 2156,
      "pple": 2157,
      "tes": 2158,
      "pression": 2159,
      "mitral": 2160,
      "transplant": 2161,
      "Cont": 2162,
      "followup": 2163,
      "thyroid": 2164,
      "Given": 2165,
      "Ev": 2166,
      "IP": 2167,
      "ys": 2168,
      "orac": 2169,
      "poor": 2170,
      "kele": 2171,
      "carcin": 2172,
      "opacifications": 2173,
      "correct": 2174,
      "lymphoma": 2175,
      "Thorac": 2176,
      "brachi": 2177,
      "Evidence": 2178,
      "30": 2179,
      "Old": 2180,
      "allo": 2181,
      "ases": 2182,
      "rial": 2183,
      "prosthe": 2184,
      "hemidiaphragms": 2185,
      "hypotension": 2186,
      "tissues": 2187,
      "peripheral": 2188,
      "Partially": 2189,
      "ocytosis": 2190,
      "GHT": 2191,
      "SA": 2192,
      "ctive": 2193,
      "gle": 2194,
      "king": 2195,
      "kyph": 2196,
      "lumbar": 2197,
      "ocal": 2198,
      "rom": 2199,
      "ler": 2200,
      "leu": 2201,
      "rightward": 2202,
      "Calcification": 2203,
      "gleno": 2204,
      "ect": 2205,
      "ocephalic": 2206,
      "situ": 2207,
      "icated": 2208,
      "imaging": 2209,
      "obser": 2210,
      "obscuration": 2211,
      "stectomy": 2212,
      "flattening": 2213,
      "keletal": 2214,
      "CAD": 2215,
      "eti": 2216,
      "ning": 2217,
      "ue": 2218,
      "ins": 2219,
      "read": 2220,
      "sewhere": 2221,
      "ital": 2222,
      "appeared": 2223,
      "pacing": 2224,
      "located": 2225,
      "tachypnea": 2226,
      "spici": 2227,
      "Continu": 2228,
      "carcinoma": 2229,
      "brachiocephalic": 2230,
      "kocytosis": 2231,
      "yond": 2232,
      "let": 2233,
      "conve": 2234,
      "beyond": 2235,
      "cei": 2236,
      "minute": 2237,
      "colon": 2238,
      "complications": 2239,
      "lecystectomy": 2240,
      "optimal": 2241,
      "Continued": 2242,
      "13": 2243,
      "Im": 2244,
      "Known": 2245,
      "NT": 2246,
      "hema": 2247,
      "suspici": 2248,
      "congestive": 2249,
      "devi": 2250,
      "sinuses": 2251,
      "lingula": 2252,
      "appreciable": 2253,
      "CC": 2254,
      "Follow": 2255,
      "rais": 2256,
      "liver": 2257,
      "presenting": 2258,
      "breast": 2259,
      "Midline": 2260,
      "physi": 2261,
      "bac": 2262,
      "go": 2263,
      "path": 2264,
      "ented": 2265,
      "dict": 2266,
      "local": 2267,
      "Note": 2268,
      "fix": 2269,
      "hydro": 2270,
      "SB": 2271,
      "ber": 2272,
      "gas": 2273,
      "ip": 2274,
      "toma": 2275,
      "thera": 2276,
      "six": 2277,
      "sider": 2278,
      "rical": 2279,
      "maller": 2280,
      "fore": 2281,
      "RIGHT": 2282,
      "positions": 2283,
      "approach": 2284,
      "leukocytosis": 2285,
      "Ate": 2286,
      "Tr": 2287,
      "biapical": 2288,
      "cending": 2289,
      "ox": 2290,
      "reticular": 2291,
      "remia": 2292,
      "partial": 2293,
      "regions": 2294,
      "Calcified": 2295,
      "Atelect": 2296,
      "His": 2297,
      "ez": 2298,
      "mas": 2299,
      "pneumomediastinum": 2300,
      "seiz": 2301,
      "resul": 2302,
      "developed": 2303,
      "hypoxem": 2304,
      "draw": 2305,
      "Elevation": 2306,
      "Possible": 2307,
      "arac": 2308,
      "incompletely": 2309,
      "redemonstrated": 2310,
      "les": 2311,
      "rating": 2312,
      "seal": 2313,
      "produc": 2314,
      "laterally": 2315,
      "Dobhoff": 2316,
      "lesions": 2317,
      "Hyper": 2318,
      "Additionally": 2319,
      "etiology": 2320,
      "17": 2321,
      "EF": 2322,
      "He": 2323,
      "yes": 2324,
      "onset": 2325,
      "recurrent": 2326,
      "recei": 2327,
      "lection": 2328,
      "sutures": 2329,
      "meas": 2330,
      "drainage": 2331,
      "Prominence": 2332,
      "dextroscoliosis": 2333,
      "convex": 2334,
      "History": 2335,
      "yester": 2336,
      "pm": 2337,
      "smaller": 2338,
      "charac": 2339,
      "best": 2340,
      "being": 2341,
      "expl": 2342,
      "wheez": 2343,
      "teriz": 2344,
      "crack": 2345,
      "predominantly": 2346,
      "Dual": 2347,
      "hematoma": 2348,
      "resulting": 2349,
      "yesterday": 2350,
      "16": 2351,
      "Sh": 2352,
      "bul": 2353,
      "specific": 2354,
      "hepati": 2355,
      "orogastric": 2356,
      "retrac": 2357,
      "withdraw": 2358,
      "INE": 2359,
      "injury": 2360,
      "entire": 2361,
      "stroke": 2362,
      "fixation": 2363,
      "08": 2364,
      "way": 2365,
      "water": 2366,
      "thma": 2367,
      "refer": 2368,
      "progressed": 2369,
      "exaggerated": 2370,
      "oscopy": 2371,
      "azygos": 2372,
      "pattern": 2373,
      "minutes": 2374,
      "crackles": 2375,
      "ballo": 2376,
      "hel": 2377,
      "acrom": 2378,
      "malign": 2379,
      "pla": 2380,
      "aged": 2381,
      "bronchus": 2382,
      "multilevel": 2383,
      "coiled": 2384,
      "weeks": 2385,
      "sulcus": 2386,
      "Thoracic": 2387,
      "oxy": 2388,
      "balloon": 2389,
      "00": 2390,
      "19": 2391,
      "eri": 2392,
      "mu": 2393,
      "mate": 2394,
      "itive": 2395,
      "presum": 2396,
      "appearing": 2397,
      "notably": 2398,
      "perib": 2399,
      "congested": 2400,
      "gener": 2401,
      "definitive": 2402,
      "collection": 2403,
      "cian": 2404,
      "appropriately": 2405,
      "nipple": 2406,
      "acerb": 2407,
      "glenohumeral": 2408,
      "physician": 2409,
      "oxygen": 2410,
      "App": 2411,
      "bable": 2412,
      "direct": 2413,
      "event": 2414,
      "ICU": 2415,
      "exacerb": 2416,
      "passes": 2417,
      "Probable": 2418,
      "gastroesophageal": 2419,
      "help": 2420,
      "El": 2421,
      "chemo": 2422,
      "ff": 2423,
      "had": 2424,
      "sat": 2425,
      "heterogeneous": 2426,
      "abs": 2427,
      "conspic": 2428,
      "focus": 2429,
      "atitis": 2430,
      "remainder": 2431,
      "granulom": 2432,
      "extubation": 2433,
      "EMI": 2434,
      "therapy": 2435,
      "characteriz": 2436,
      "Elsewhere": 2437,
      "conspicu": 2438,
      "Vis": 2439,
      "found": 2440,
      "my": 2441,
      "tak": 2442,
      "regular": 2443,
      "ane": 2444,
      "dilated": 2445,
      "ulation": 2446,
      "about": 2447,
      "aint": 2448,
      "ago": 2449,
      "airway": 2450,
      "curv": 2451,
      "Multilevel": 2452,
      "hole": 2453,
      "distention": 2454,
      "distended": 2455,
      "dictation": 2456,
      "18": 2457,
      "Bo": 2458,
      "Some": 2459,
      "blo": 2460,
      "dou": 2461,
      "fun": 2462,
      "inlet": 2463,
      "thir": 2464,
      "lobar": 2465,
      "super": 2466,
      "outside": 2467,
      "correl": 2468,
      "tachycardia": 2469,
      "corresponds": 2470,
      "Within": 2471,
      "sixth": 2472,
      "helpful": 2473,
      "06": 2474,
      "09": 2475,
      "EK": 2476,
      "IAB": 2477,
      "Pne": 2478,
      "pare": 2479,
      "lective": 2480,
      "asthma": 2481,
      "stab": 2482,
      "lectomy": 2483,
      "torso": 2484,
      "bodies": 2485,
      "bronchi": 2486,
      "fication": 2487,
      "coursing": 2488,
      "septic": 2489,
      "foreign": 2490,
      "received": 2491,
      "Visualized": 2492,
      "IABP": 2493,
      "Pneum": 2494,
      "Cough": 2495,
      "ED": 2496,
      "Hazy": 2497,
      "IV": 2498,
      "Widen": 2499,
      "bri": 2500,
      "following": 2501,
      "cham": 2502,
      "attered": 2503,
      "tips": 2504,
      "CTA": 2505,
      "background": 2506,
      "urys": 2507,
      "biop": 2508,
      "Sternal": 2509,
      "accentuates": 2510,
      "suspicious": 2511,
      "referring": 2512,
      "acromio": 2513,
      "chamber": 2514,
      "kin": 2515,
      "arti": 2516,
      "ist": 2517,
      "leak": 2518,
      "ertion": 2519,
      "leftward": 2520,
      "NDUM": 2521,
      "cuff": 2522,
      "improving": 2523,
      "bronchial": 2524,
      "hyperinflation": 2525,
      "ADDE": 2526,
      "clinically": 2527,
      "pancreatitis": 2528,
      "indistinctness": 2529,
      "loops": 2530,
      "aligned": 2531,
      "exacerbation": 2532,
      "ADDENDUM": 2533,
      "Is": 2534,
      "Tip": 2535,
      "bt": 2536,
      "paged": 2537,
      "teremia": 2538,
      "ascending": 2539,
      "ternal": 2540,
      "radiation": 2541,
      "creasing": 2542,
      "vening": 2543,
      "exams": 2544,
      "does": 2545,
      "axilla": 2546,
      "demineralized": 2547,
      "deviation": 2548,
      "plaques": 2549,
      "third": 2550,
      "07": 2551,
      "23": 2552,
      "GI": 2553,
      "WO": 2554,
      "lness": 2555,
      "hem": 2556,
      "unclear": 2557,
      "noti": 2558,
      "seven": 2559,
      "resp": 2560,
      "expansion": 2561,
      "verse": 2562,
      "obvious": 2563,
      "haz": 2564,
      "penet": 2565,
      "Opacity": 2566,
      "Followup": 2567,
      "bacteremia": 2568,
      "material": 2569,
      "aneurys": 2570,
      "acromioclavicular": 2571,
      "Biapical": 2572,
      "marg": 2573,
      "otic": 2574,
      "pum": 2575,
      "zones": 2576,
      "access": 2577,
      "AMS": 2578,
      "sized": 2579,
      "ague": 2580,
      "masses": 2581,
      "Lower": 2582,
      "humerus": 2583,
      "Opacification": 2584,
      "arteries": 2585,
      "diagnosis": 2586,
      "conspicuous": 2587,
      "supervening": 2588,
      "**": 2589,
      "01": 2590,
      "RD": 2591,
      "TWO": 2592,
      "ade": 2593,
      "four": 2594,
      "lor": 2595,
      "ug": 2596,
      "hed": 2597,
      "here": 2598,
      "site": 2599,
      "dus": 2600,
      "OGT": 2601,
      "otomy": 2602,
      "cholecystectomy": 2603,
      "hepatic": 2604,
      "fundus": 2605,
      "27": 2606,
      "Den": 2607,
      "PL": 2608,
      "Po": 2609,
      "Wors": 2610,
      "onia": 2611,
      "iness": 2612,
      "ori": 2613,
      "rill": 2614,
      "need": 2615,
      "via": 2616,
      "ween": 2617,
      "infl": 2618,
      "presents": 2619,
      "peat": 2620,
      "utro": 2621,
      "aped": 2622,
      "visu": 2623,
      "accentuate": 2624,
      "joints": 2625,
      "complicated": 2626,
      "accum": 2627,
      "demonstrating": 2628,
      "ESRD": 2629,
      "Atelectasis": 2630,
      "productive": 2631,
      "clo": 2632,
      "dow": 2633,
      "lative": 2634,
      "toward": 2635,
      "ropl": 2636,
      "ifth": 2637,
      "noting": 2638,
      "structure": 2639,
      "bleed": 2640,
      "reflective": 2641,
      "shaped": 2642,
      "between": 2643,
      "transverse": 2644,
      "Assessment": 2645,
      "Relative": 2646,
      "drains": 2647,
      "corresponding": 2648,
      "utropen": 2649,
      "21": 2650,
      "24": 2651,
      "ENT": 2652,
      "HD": 2653,
      "RA": 2654,
      "fifth": 2655,
      "vation": 2656,
      "such": 2657,
      "subdiaphragmatic": 2658,
      "ounds": 2659,
      "obscuring": 2660,
      "Also": 2661,
      "extrem": 2662,
      "Limited": 2663,
      "ectasis": 2664,
      "EKG": 2665,
      "CA": 2666,
      "Check": 2667,
      "pital": 2668,
      "swan": 2669,
      "skeletal": 2670,
      "height": 2671,
      "arth": 2672,
      "wire": 2673,
      "month": 2674,
      "external": 2675,
      "obli": 2676,
      "ophy": 2677,
      "reduc": 2678,
      "formation": 2679,
      "suggestion": 2680,
      "coil": 2681,
      "umerous": 2682,
      "unfolding": 2683,
      "axillary": 2684,
      "peritoneal": 2685,
      "observation": 2686,
      "peribronchial": 2687,
      "biopsy": 2688,
      "notification": 2689,
      "pump": 2690,
      "Worsening": 2691,
      "04": 2692,
      "54": 2693,
      "Aorta": 2694,
      "PO": 2695,
      "altered": 2696,
      "ries": 2697,
      "stage": 2698,
      "during": 2699,
      "welling": 2700,
      "Multifocal": 2701,
      "grade": 2702,
      "extremity": 2703,
      "56": 2704,
      "Mark": 2705,
      "Tor": 2706,
      "jor": 2707,
      "requ": 2708,
      "diures": 2709,
      "estion": 2710,
      "major": 2711,
      "AML": 2712,
      "COMPARISONS": 2713,
      "aturation": 2714,
      "Analysis": 2715,
      "ympt": 2716,
      "Although": 2717,
      "quired": 2718,
      "morning": 2719,
      "osteophy": 2720,
      "obstructive": 2721,
      "much": 2722,
      "bronchiectasis": 2723,
      "seventh": 2724,
      "Cor": 2725,
      "Qu": 2726,
      "hab": 2727,
      "ancy": 2728,
      "acquired": 2729,
      "fort": 2730,
      "dedicated": 2731,
      "allic": 2732,
      "idental": 2733,
      "Improv": 2734,
      "Marked": 2735,
      "Tortu": 2736,
      "03": 2737,
      "22": 2738,
      "28": 2739,
      "BE": 2740,
      "LO": 2741,
      "Rule": 2742,
      "bol": 2743,
      "bone": 2744,
      "hos": 2745,
      "late": 2746,
      "muc": 2747,
      "edic": 2748,
      "neutropen": 2749,
      "ters": 2750,
      "atrac": 2751,
      "para": 2752,
      "dep": 2753,
      "decom": 2754,
      "whose": 2755,
      "cran": 2756,
      "Prominent": 2757,
      "caused": 2758,
      "Calcifications": 2759,
      "pathology": 2760,
      "characterized": 2761,
      "blood": 2762,
      "aneurysm": 2763,
      "adequ": 2764,
      "ymptom": 2765,
      "atracheal": 2766,
      "--": 2767,
      "41": 2768,
      "DM": 2769,
      "Focal": 2770,
      "RLL": 2771,
      "afib": 2772,
      "itus": 2773,
      "oly": 2774,
      "consider": 2775,
      "pneumoperitone": 2776,
      "cardiophrenic": 2777,
      "paratracheal": 2778,
      "contr": 2779,
      "obronchial": 2780,
      "borders": 2781,
      "bibasal": 2782,
      "graft": 2783,
      "results": 2784,
      "ventilation": 2785,
      "UPRIGHT": 2786,
      "SAH": 2787,
      "kyphosis": 2788,
      "Trace": 2789,
      "hypoxemia": 2790,
      "wheezing": 2791,
      "Apparent": 2792,
      "curvature": 2793,
      "habitus": 2794,
      "pneumoperitoneum": 2795,
      "40": 2796,
      "47": 2797,
      "50": 2798,
      "Ac": 2799,
      "lum": 2800,
      "sounds": 2801,
      "contu": 2802,
      "rather": 2803,
      "plethor": 2804,
      "compare": 2805,
      "Mildly": 2806,
      "massive": 2807,
      "Short": 2808,
      "taken": 2809,
      "accumulation": 2810,
      "Question": 2811,
      "contusion": 2812,
      "32": 2813,
      "More": 2814,
      "NO": 2815,
      "ami": 2816,
      "band": 2817,
      "fer": 2818,
      "fact": 2819,
      "gl": 2820,
      "smo": 2821,
      "almost": 2822,
      "ide": 2823,
      "presented": 2824,
      "notable": 2825,
      "mainstem": 2826,
      "pite": 2827,
      "bronchoscopy": 2828,
      "rectomy": 2829,
      "intrathoracic": 2830,
      "pens": 2831,
      "account": 2832,
      "HTN": 2833,
      "flattened": 2834,
      "measu": 2835,
      "35": 2836,
      "45": 2837,
      "Cent": 2838,
      "NS": 2839,
      "PLE": 2840,
      "ses": 2841,
      "tri": 2842,
      "arone": 2843,
      "allow": 2844,
      "repeat": 2845,
      "dissection": 2846,
      "ically": 2847,
      "bypass": 2848,
      "prosthetic": 2849,
      "SBO": 2850,
      "withdrawn": 2851,
      "requir": 2852,
      "decompens": 2853,
      "lumen": 2854,
      "plethora": 2855,
      "measuring": 2856,
      "Central": 2857,
      "48": 2858,
      "CM": 2859,
      "Vascul": 2860,
      "dating": 2861,
      "sar": 2862,
      "symptom": 2863,
      "ts": 2864,
      "vague": 2865,
      "ili": 2866,
      "neph": 2867,
      "phic": 2868,
      "itation": 2869,
      "oplast": 2870,
      "crete": 2871,
      "sput": 2872,
      "Compression": 2873,
      "pull": 2874,
      "colectomy": 2875,
      "pleura": 2876,
      "IPH": 2877,
      "Dense": 2878,
      "towards": 2879,
      "requiring": 2880,
      "29": 2881,
      "Bi": 2882,
      "OM": 2883,
      "Of": 2884,
      "Tu": 2885,
      "Upper": 2886,
      "ion": 2887,
      "ile": 2888,
      "lat": 2889,
      "pad": 2890,
      "chin": 2891,
      "ides": 2892,
      "asty": 2893,
      "atelectases": 2894,
      "radiographic": 2895,
      "Increasing": 2896,
      "aps": 2897,
      "shar": 2898,
      "hilus": 2899,
      "hery": 2900,
      "asymmetrical": 2901,
      "odarone": 2902,
      "LLL": 2903,
      "nonspecific": 2904,
      "periphery": 2905,
      "malignancy": 2906,
      "myel": 2907,
      "Both": 2908,
      "depend": 2909,
      "oplasty": 2910,
      "sputum": 2911,
      "34": 2912,
      "Wides": 2913,
      "haps": 2914,
      "mis": 2915,
      "rst": 2916,
      "she": 2917,
      "uted": 2918,
      "olic": 2919,
      "plug": 2920,
      "discrete": 2921,
      "first": 2922,
      "irregular": 2923,
      "limiting": 2924,
      "trophic": 2925,
      "Any": 2926,
      "entered": 2927,
      "intraperitoneal": 2928,
      "fxs": 2929,
      "accentuating": 2930,
      "good": 2931,
      "entirely": 2932,
      "correlation": 2933,
      "margin": 2934,
      "roplasty": 2935,
      "Vascular": 2936,
      "sharp": 2937,
      "Widespread": 2938,
      "53": 2939,
      "Dis": 2940,
      "IT": 2941,
      "Res": 2942,
      "isfac": 2943,
      "olateral": 2944,
      "abg": 2945,
      "Inc": 2946,
      "Pleur": 2947,
      "correlate": 2948,
      "obscures": 2949,
      "hypoxic": 2950,
      "embol": 2951,
      "indicate": 2952,
      "satisfac": 2953,
      "granulomas": 2954,
      "doubt": 2955,
      "44": 2956,
      "LV": 2957,
      "LINE": 2958,
      "Peri": 2959,
      "RUL": 2960,
      "cabg": 2961,
      "few": 2962,
      "inde": 2963,
      "active": 2964,
      "concurrent": 2965,
      "lie": 2966,
      "perhaps": 2967,
      "PMH": 2968,
      "Under": 2969,
      "medially": 2970,
      "causing": 2971,
      "raises": 2972,
      "diuresis": 2973,
      "hospital": 2974,
      "amiodarone": 2975,
      "satisfactory": 2976,
      "02": 2977,
      "33": 2978,
      "Aside": 2979,
      "Fever": 2980,
      "Mon": 2981,
      "centered": 2982,
      "dwelling": 2983,
      "arm": 2984,
      "unt": 2985,
      "silhouetting": 2986,
      "pls": 2987,
      "thoracotomy": 2988,
      "Intub": 2989,
      "HIV": 2990,
      "underpenet": 2991,
      "films": 2992,
      "progressive": 2993,
      "syn": 2994,
      "arterial": 2995,
      "scattered": 2996,
      "explain": 2997,
      "Pneumonia": 2998,
      "symptoms": 2999,
      "57": 3000,
      "TU": 3001,
      "Ver": 3002,
      "cage": 3003,
      "faint": 3004,
      "xic": 3005,
      "initi": 3006,
      "report": 3007,
      "nodes": 3008,
      "seg": 3009,
      "bleeding": 3010,
      "ization": 3011,
      "filled": 3012,
      "severely": 3013,
      "Surg": 3014,
      "fullness": 3015,
      "parts": 3016,
      "inferiorly": 3017,
      "configurational": 3018,
      "shadows": 3019,
      "pancreatic": 3020,
      "CVL": 3021,
      "adequate": 3022,
      "contrast": 3023,
      "dependent": 3024,
      "PER": 3025,
      "Whe": 3026,
      "cum": 3027,
      "poly": 3028,
      "ypical": 3029,
      "repositioned": 3030,
      "normally": 3031,
      "atypical": 3032,
      "ett": 3033,
      "white": 3034,
      "despite": 3035,
      "picc": 3036,
      "treat": 3037,
      "accoun": 3038,
      "predominance": 3039,
      "lingular": 3040,
      "cephalization": 3041,
      "pleuro": 3042,
      "extreme": 3043,
      "chemotherapy": 3044,
      "artifact": 3045,
      "haziness": 3046,
      "26": 3047,
      "Co": 3048,
      "Lines": 3049,
      "Scar": 3050,
      "UG": 3051,
      "ption": 3052,
      "yo": 3053,
      "ritic": 3054,
      "chond": 3055,
      "perfor": 3056,
      "limitations": 3057,
      "largely": 3058,
      "shunt": 3059,
      "suggested": 3060,
      "urring": 3061,
      "transfer": 3062,
      "fibrotic": 3063,
      "shoulders": 3064,
      "Slightly": 3065,
      "poorly": 3066,
      "seizure": 3067,
      "waterseal": 3068,
      "myeloma": 3069,
      "indeterminate": 3070,
      "treatment": 3071,
      "42": 3072,
      "59": 3073,
      "Bones": 3074,
      "FT": 3075,
      "Lateral": 3076,
      "Se": 3077,
      "TAVR": 3078,
      "oden": 3079,
      "past": 3080,
      "interi": 3081,
      "ann": 3082,
      "effort": 3083,
      "chan": 3084,
      "toxic": 3085,
      "Now": 3086,
      "cleared": 3087,
      "marker": 3088,
      "duoden": 3089,
      "vention": 3090,
      "coid": 3091,
      "techn": 3092,
      "hemodialysis": 3093,
      "Subse": 3094,
      "ASE": 3095,
      "demonstration": 3096,
      "down": 3097,
      "Incidental": 3098,
      "Intubated": 3099,
      "interim": 3100,
      "46": 3101,
      "49": 3102,
      "DO": 3103,
      "DX": 3104,
      "TI": 3105,
      "cross": 3106,
      "tomy": 3107,
      "war": 3108,
      "reas": 3109,
      "ash": 3110,
      "chain": 3111,
      "pneumonic": 3112,
      "pneumonitis": 3113,
      "suboptimal": 3114,
      "amp": 3115,
      "Superior": 3116,
      "resolving": 3117,
      "traver": 3118,
      "Subcutaneous": 3119,
      "metastases": 3120,
      "picardi": 3121,
      "Overlying": 3122,
      "presumed": 3123,
      "eventration": 3124,
      "neutropenia": 3125,
      "Acute": 3126,
      "Shortness": 3127,
      "sheath": 3128,
      "Monitoring": 3129,
      "TUBE": 3130,
      "Scarring": 3131,
      "UGH": 3132,
      "38": 3133,
      "Rema": 3134,
      "US": 3135,
      "bl": 3136,
      "bra": 3137,
      "elong": 3138,
      "function": 3139,
      "sca": 3140,
      "reg": 3141,
      "replaced": 3142,
      "chf": 3143,
      "STEMI": 3144,
      "immedi": 3145,
      "catheters": 3146,
      "mostly": 3147,
      "remote": 3148,
      "stents": 3149,
      "confluence": 3150,
      "Opacities": 3151,
      "pyema": 3152,
      "traumatic": 3153,
      "clavicles": 3154,
      "OSH": 3155,
      "obstruction": 3156,
      "seizures": 3157,
      "retraction": 3158,
      "POD": 3159,
      "glass": 3160,
      "Underlying": 3161,
      "segment": 3162,
      "When": 3163,
      "toxicity": 3164,
      "37": 3165,
      "MR": 3166,
      "cen": 3167,
      "din": 3168,
      "gin": 3169,
      "nor": 3170,
      "ner": 3171,
      "rated": 3172,
      "sob": 3173,
      "three": 3174,
      "cath": 3175,
      "fect": 3176,
      "Interstitial": 3177,
      "coar": 3178,
      "empyema": 3179,
      "Hypo": 3180,
      "Posi": 3181,
      "Relatively": 3182,
      "Bibasal": 3183,
      "polytrauma": 3184,
      "technical": 3185,
      "Remain": 3186,
      "36": 3187,
      "Met": 3188,
      "count": 3189,
      "epi": 3190,
      "epicardi": 3191,
      "fist": 3192,
      "sen": 3193,
      "var": 3194,
      "tions": 3195,
      "node": 3196,
      "nosis": 3197,
      "based": 3198,
      "typical": 3199,
      "desaturation": 3200,
      "superiorly": 3201,
      "anteriorly": 3202,
      "fibrill": 3203,
      "includes": 3204,
      "asymmetry": 3205,
      "pectus": 3206,
      "indicative": 3207,
      "hyperexpansion": 3208,
      "confirmed": 3209,
      "ocentesis": 3210,
      "Additional": 3211,
      "prosthesis": 3212,
      "brile": 3213,
      "cuffing": 3214,
      "fourth": 3215,
      "decompensated": 3216,
      "iliary": 3217,
      "mission": 3218,
      "fibrillation": 3219,
      ").": 3220,
      "43": 3221,
      "BC": 3222,
      "Cer": 3223,
      "DIS": 3224,
      "Fe": 3225,
      "Fib": 3226,
      "MVR": 3227,
      "SI": 3228,
      "bs": 3229,
      "face": 3230,
      "ran": 3231,
      "dilat": 3232,
      "call": 3233,
      "frx": 3234,
      "overlie": 3235,
      "pel": 3236,
      "endobronchial": 3237,
      "certain": 3238,
      "Support": 3239,
      "coh": 3240,
      "stenosis": 3241,
      "correspond": 3242,
      "exception": 3243,
      "osteopen": 3244,
      "pleuritic": 3245,
      "demineralization": 3246,
      "Hypertrophic": 3247,
      "abscess": 3248,
      "Widened": 3249,
      "inflam": 3250,
      "visualization": 3251,
      "Improved": 3252,
      "Respiratory": 3253,
      "fistula": 3254,
      "dilatation": 3255,
      "39": 3256,
      "Cur": 3257,
      "DING": 3258,
      "LY": 3259,
      "PPD": 3260,
      "Sp": 3261,
      "Tiny": 3262,
      "clip": 3263,
      "tous": 3264,
      "arrow": 3265,
      "recor": 3266,
      "ticul": 3267,
      "espe": 3268,
      "cardiogen": 3269,
      "iting": 3270,
      "point": 3271,
      "cially": 3272,
      "relates": 3273,
      "PNE": 3274,
      "metallic": 3275,
      "sclerosis": 3276,
      "difference": 3277,
      "pylor": 3278,
      "Tortuosity": 3279,
      "PLEASE": 3280,
      "plugging": 3281,
      "elongated": 3282,
      "Cervical": 3283,
      "especially": 3284,
      "cardiogenic": 3285,
      "55": 3286,
      "Pac": 3287,
      "Stu": 3288,
      "UR": 3289,
      "VT": 3290,
      "cx": 3291,
      "men": 3292,
      "oid": 3293,
      "ta": 3294,
      "alcoh": 3295,
      "aside": 3296,
      "ily": 3297,
      "secre": 3298,
      "iduc": 3299,
      "evac": 3300,
      "evol": 3301,
      "FINDING": 3302,
      "suction": 3303,
      "PAC": 3304,
      "infar": 3305,
      "thoracocentesis": 3306,
      "aseous": 3307,
      "whether": 3308,
      "Exam": 3309,
      "Postoperative": 3310,
      "lapar": 3311,
      "ready": 3312,
      "raising": 3313,
      "hydropneumothorax": 3314,
      "retracted": 3315,
      "cranio": 3316,
      "sarcoid": 3317,
      "epicardial": 3318,
      "Pacemaker": 3319,
      "Study": 3320,
      "FINDINGS": 3321,
      "25": 3322,
      "31": 3323,
      "58": 3324,
      "Air": 3325,
      "Afib": 3326,
      "MCC": 3327,
      "Numerous": 3328,
      "ks": 3329,
      "already": 3330,
      "repositioning": 3331,
      "repor": 3332,
      "anti": 3333,
      "tical": 3334,
      "sit": 3335,
      "stably": 3336,
      "ghth": 3337,
      "ney": 3338,
      "idney": 3339,
      "abut": 3340,
      "even": 3341,
      "aining": 3342,
      "COUGH": 3343,
      "spon": 3344,
      "midlung": 3345,
      "baseline": 3346,
      "tract": 3347,
      "CTs": 3348,
      "postsurgical": 3349,
      "Asymmet": 3350,
      "ancement": 3351,
      "febrile": 3352,
      "sidehole": 3353,
      "transvenous": 3354,
      "rays": 3355,
      "dotic": 3356,
      "potential": 3357,
      "complication": 3358,
      "apparently": 3359,
      "PEA": 3360,
      "eighth": 3361,
      "insertion": 3362,
      "hydrothorax": 3363,
      "hemop": 3364,
      "reduced": 3365,
      "osteophytes": 3366,
      "nephrectomy": 3367,
      "accounting": 3368,
      "Superiorly": 3369,
      "PNEUM": 3370,
      "secretions": 3371,
      "iducial": 3372,
      "reported": 3373,
      "52": 3374,
      "Areas": 3375,
      "Des": 3376,
      "Fl": 3377,
      "MVC": 3378,
      "PRE": 3379,
      "Sign": 3380,
      "SEMI": 3381,
      "VAP": 3382,
      "sple": 3383,
      "usu": 3384,
      "ism": 3385,
      "ede": 3386,
      "total": 3387,
      "atum": 3388,
      "attem": 3389,
      "LEFT": 3390,
      "ized": 3391,
      "prim": 3392,
      "Remo": 3393,
      "Recomm": 3394,
      "treated": 3395,
      "required": 3396,
      "platelike": 3397,
      "Widening": 3398,
      "origin": 3399,
      "needs": 3400,
      "transferred": 3401,
      "traverses": 3402,
      "centime": 3403,
      "cxr": 3404,
      "Recommend": 3405,
      "EV": 3406,
      "HF": 3407,
      "Sim": 3408,
      "Specific": 3409,
      "Whi": 3410,
      "WBC": 3411,
      "dr": 3412,
      "nin": 3413,
      "round": 3414,
      "symmet": 3415,
      "trib": 3416,
      "around": 3417,
      "stri": 3418,
      "eration": 3419,
      "see": 3420,
      "seud": 3421,
      "icular": 3422,
      "dec": 3423,
      "exertion": 3424,
      "clearing": 3425,
      "valves": 3426,
      "displacement": 3427,
      "limitation": 3428,
      "retrosternal": 3429,
      "portions": 3430,
      "heads": 3431,
      "months": 3432,
      "oblique": 3433,
      "Pleurx": 3434,
      "ventional": 3435,
      "Specifically": 3436,
      "ninth": 3437,
      "..": 3438,
      "IA": 3439,
      "MAL": 3440,
      "PET": 3441,
      "Sup": 3442,
      "biliary": 3443,
      "elect": 3444,
      "fy": 3445,
      "gone": 3446,
      "mes": 3447,
      "pseud": 3448,
      "solid": 3449,
      "vom": 3450,
      "vocal": 3451,
      "oned": 3452,
      "then": 3453,
      "dire": 3454,
      "malpositioned": 3455,
      "terolateral": 3456,
      "excav": 3457,
      "proper": 3458,
      "preop": 3459,
      "positional": 3460,
      "omyopathy": 3461,
      "desis": 3462,
      "undergone": 3463,
      "identally": 3464,
      "commun": 3465,
      "system": 3466,
      "alignment": 3467,
      "Heterogeneous": 3468,
      "presumably": 3469,
      "Perihilar": 3470,
      "pleurodesis": 3471,
      "Remainder": 3472,
      "DISH": 3473,
      "craniotomy": 3474,
      "Similar": 3475,
      "excavatum": 3476,
      "AA": 3477,
      "IF": 3478,
      "ROS": 3479,
      "SD": 3480,
      "Sus": 3481,
      "Up": 3482,
      "VP": 3483,
      "kidney": 3484,
      "med": 3485,
      "num": 3486,
      "oing": 3487,
      "pr": 3488,
      "redemonstration": 3489,
      "umor": 3490,
      "ulm": 3491,
      "separ": 3492,
      "tur": 3493,
      "attrib": 3494,
      "cardiomyopathy": 3495,
      "dem": 3496,
      "consolidative": 3497,
      "coma": 3498,
      "apping": 3499,
      "radio": 3500,
      "motion": 3501,
      "keep": 3502,
      "mittent": 3503,
      "clamp": 3504,
      "largement": 3505,
      "carinal": 3506,
      "type": 3507,
      "Anterior": 3508,
      "Enlargement": 3509,
      "stantial": 3510,
      "emphysematous": 3511,
      "continue": 3512,
      "suprahilar": 3513,
      "ills": 3514,
      "Consider": 3515,
      "advancement": 3516,
      "Substantial": 3517,
      "questionable": 3518,
      "PEG": 3519,
      "Posterior": 3520,
      "observed": 3521,
      "stability": 3522,
      "coils": 3523,
      "Current": 3524,
      "Spinal": 3525,
      "infarct": 3526,
      "Remote": 3527,
      "Supine": 3528,
      "vomiting": 3529,
      "ROSC": 3530,
      "keeping": 3531,
      "51": 3532,
      "Crowding": 3533,
      "OH": 3534,
      "Roun": 3535,
      "Skeletal": 3536,
      "fiducial": 3537,
      "home": 3538,
      "mun": 3539,
      "na": 3540,
      "sCHF": 3541,
      "skin": 3542,
      "tumor": 3543,
      "xia": 3544,
      "include": 3545,
      "isc": 3546,
      "unknown": 3547,
      "rales": 3548,
      "term": 3549,
      "diabe": 3550,
      "immun": 3551,
      "endo": 3552,
      "work": 3553,
      "board": 3554,
      "levels": 3555,
      "ongoing": 3556,
      "zyg": 3557,
      "quivocal": 3558,
      "differential": 3559,
      "partly": 3560,
      "appreciably": 3561,
      "inser": 3562,
      "absence": 3563,
      "lordotic": 3564,
      "PLAC": 3565,
      "paramediastinal": 3566,
      "ileostomy": 3567,
      "chondral": 3568,
      "Feeding": 3569,
      "usual": 3570,
      "SDH": 3571,
      "Upright": 3572,
      "Rounded": 3573,
      "Bas": 3574,
      "Faint": 3575,
      "RO": 3576,
      "Rede": 3577,
      "SUP": 3578,
      "dent": 3579,
      "igh": 3580,
      "lav": 3581,
      "mation": 3582,
      "nt": 3583,
      "narrow": 3584,
      "spar": 3585,
      "iso": 3586,
      "ished": 3587,
      "they": 3588,
      "state": 3589,
      "will": 3590,
      "ulated": 3591,
      "ats": 3592,
      "atous": 3593,
      "deline": 3594,
      "radiographically": 3595,
      "priors": 3596,
      "admission": 3597,
      "kely": 3598,
      "hip": 3599,
      "subpleural": 3600,
      "Indwelling": 3601,
      "rence": 3602,
      "ortication": 3603,
      "costo": 3604,
      "definitely": 3605,
      "suprac": 3606,
      "stenting": 3607,
      "Constant": 3608,
      "Consolid": 3609,
      "emia": 3610,
      "Chain": 3611,
      "osteo": 3612,
      "EMENT": 3613,
      "Likely": 3614,
      "tempor": 3615,
      "hypoxemic": 3616,
      "generator": 3617,
      "closure": 3618,
      "mucous": 3619,
      "Tub": 3620,
      "LVAD": 3621,
      "perforation": 3622,
      "Subsegmental": 3623,
      "evacuation": 3624,
      "Significant": 3625,
      "decortication": 3626,
      "inserted": 3627,
      "PLACEMENT": 3628,
      "Redemon": 3629,
      "C5": 3630,
      "CK": 3631,
      "CAP": 3632,
      "Following": 3633,
      "LI": 3634,
      "MA": 3635,
      "MS": 3636,
      "One": 3637,
      "PPM": 3638,
      "Sc": 3639,
      "Sever": 3640,
      "TER": 3641,
      "UTI": 3642,
      "done": 3643,
      "dCHF": 3644,
      "ectomy": 3645,
      "mic": 3646,
      "numerous": 3647,
      "pal": 3648,
      "scre": 3649,
      "onch": 3650,
      "reaccumulation": 3651,
      "ley": 3652,
      "asci": 3653,
      "sidual": 3654,
      "chol": 3655,
      "loo": 3656,
      "lothorax": 3657,
      "ange": 3658,
      "determin": 3659,
      "years": 3660,
      "plan": 3661,
      "plain": 3662,
      "hemidiaphragmatic": 3663,
      "Indistinct": 3664,
      "while": 3665,
      "defib": 3666,
      "cies": 3667,
      "surroun": 3668,
      "persistently": 3669,
      "accentuation": 3670,
      "distributed": 3671,
      "combined": 3672,
      "Residual": 3673,
      "esophagectomy": 3674,
      "incidentally": 3675,
      "causes": 3676,
      "occur": 3677,
      "injuries": 3678,
      "oscopic": 3679,
      "bulla": 3680,
      "malignant": 3681,
      "hemic": 3682,
      "arthroplasty": 3683,
      "reduction": 3684,
      "sitting": 3685,
      "abutting": 3686,
      "While": 3687,
      "SUPINE": 3688,
      "lavicular": 3689,
      "supraclavicular": 3690,
      "Several": 3691,
      "ARE": 3692,
      "AFib": 3693,
      "Cost": 3694,
      "Cho": 3695,
      "ERE": 3696,
      "Ill": 3697,
      "Pres": 3698,
      "UD": 3699,
      "WI": 3700,
      "det": 3701,
      "gaseous": 3702,
      "lapping": 3703,
      "nas": 3704,
      "pid": 3705,
      "rup": 3706,
      "leg": 3707,
      "encies": 3708,
      "ought": 3709,
      "neo": 3710,
      "chills": 3711,
      "supp": 3712,
      "vert": 3713,
      "disch": 3714,
      "dislocation": 3715,
      "enlarging": 3716,
      "upon": 3717,
      "hypoinflated": 3718,
      "akness": 3719,
      "quela": 3720,
      "FROM": 3721,
      "lesser": 3722,
      "transparen": 3723,
      "clusion": 3724,
      "rising": 3725,
      "episo": 3726,
      "explor": 3727,
      "rillator": 3728,
      "Coronary": 3729,
      "mucus": 3730,
      "Discussed": 3731,
      "syndr": 3732,
      "blurring": 3733,
      "Hypoxia": 3734,
      "attempt": 3735,
      "communicated": 3736,
      "ascites": 3737,
      "defibrillator": 3738,
      "surrounding": 3739,
      "syndrome": 3740,
      "LU": 3741,
      "ML": 3742,
      "Vol": 3743,
      "dal": 3744,
      "ele": 3745,
      "flow": 3746,
      "kes": 3747,
      "lt": 3748,
      "night": 3749,
      "nur": 3750,
      "oenteric": 3751,
      "pulmon": 3752,
      "sour": 3753,
      "wound": 3754,
      "za": 3755,
      "another": 3756,
      "thop": 3757,
      "enters": 3758,
      "enza": 3759,
      "rium": 3760,
      "ouma": 3761,
      "uncertain": 3762,
      "ONIA": 3763,
      "sequela": 3764,
      "Nodular": 3765,
      "chylothorax": 3766,
      "tuber": 3767,
      "ushed": 3768,
      "bronchitis": 3769,
      "Unremarkable": 3770,
      "Enlarg": 3771,
      "rhonch": 3772,
      "gressive": 3773,
      "standing": 3774,
      "different": 3775,
      "intrapulmonary": 3776,
      "docum": 3777,
      "ILD": 3778,
      "adeno": 3779,
      "septal": 3780,
      "indicating": 3781,
      "TBI": 3782,
      "kyphotic": 3783,
      "patholog": 3784,
      "Trans": 3785,
      "withdrawal": 3786,
      "granulomatous": 3787,
      "airways": 3788,
      "coiling": 3789,
      "underpenetration": 3790,
      "extremely": 3791,
      "duodenum": 3792,
      "PNEUMONIA": 3793,
      "primary": 3794,
      "cholang": 3795,
      "Cholecystectomy": 3796,
      "WITH": 3797,
      "discharge": 3798,
      "transparency": 3799,
      "Volum": 3800,
      "oumadin": 3801,
      "rhonchi": 3802,
      "AV": 3803,
      "Hil": 3804,
      "IVC": 3805,
      "MCA": 3806,
      "Obs": 3807,
      "cric": 3808,
      "fle": 3809,
      "ium": 3810,
      "ition": 3811,
      "lin": 3812,
      "pa": 3813,
      "wed": 3814,
      "arin": 3815,
      "text": 3816,
      "reac": 3817,
      "rely": 3818,
      "ensure": 3819,
      "ilinear": 3820,
      "confusion": 3821,
      "conjunction": 3822,
      "context": 3823,
      "lytic": 3824,
      "ATE": 3825,
      "carditis": 3826,
      "atigu": 3827,
      "weakness": 3828,
      "overlapping": 3829,
      "posterolateral": 3830,
      "tysis": 3831,
      "Superimposed": 3832,
      "mechan": 3833,
      "merely": 3834,
      "collapsed": 3835,
      "followed": 3836,
      "lucent": 3837,
      "cope": 3838,
      "atory": 3839,
      "highly": 3840,
      "Elevated": 3841,
      "entia": 3842,
      "double": 3843,
      "influ": 3844,
      "annular": 3845,
      "coarse": 3846,
      "Position": 3847,
      "pelvis": 3848,
      "osteopenia": 3849,
      "centimeters": 3850,
      "immuno": 3851,
      "delineated": 3852,
      "CKD": 3853,
      "Scattered": 3854,
      "pulmonic": 3855,
      "source": 3856,
      "thopedic": 3857,
      "Enlarged": 3858,
      "atigue": 3859,
      "Aeration": 3860,
      "CE": 3861,
      "Dys": 3862,
      "Ir": 3863,
      "KA": 3864,
      "Little": 3865,
      "Pacer": 3866,
      "bore": 3867,
      "bital": 3868,
      "each": 3869,
      "equivocal": 3870,
      "fatigue": 3871,
      "hal": 3872,
      "pit": 3873,
      "sing": 3874,
      "stic": 3875,
      "sha": 3876,
      "tx": 3877,
      "intrac": 3878,
      "orbital": 3879,
      "asbest": 3880,
      "tho": 3881,
      "sig": 3882,
      "chor": 3883,
      "rapid": 3884,
      "sequ": 3885,
      "aryn": 3886,
      "expo": 3887,
      "itic": 3888,
      "plaque": 3889,
      "Increase": 3890,
      "identify": 3891,
      "flash": 3892,
      "alize": 3893,
      "felt": 3894,
      "pula": 3895,
      "shown": 3896,
      "breathing": 3897,
      "Altered": 3898,
      "Decreased": 3899,
      "biotic": 3900,
      "nearly": 3901,
      "occu": 3902,
      "subsequently": 3903,
      "diagnosed": 3904,
      "ventil": 3905,
      "measures": 3906,
      "haze": 3907,
      "PLCM": 3908,
      "visualize": 3909,
      "smoker": 3910,
      "smoking": 3911,
      "sharply": 3912,
      "explained": 3913,
      "Very": 3914,
      "initial": 3915,
      "DOE": 3916,
      "scapula": 3917,
      "immediately": 3918,
      "antibiotic": 3919,
      "hemoptysis": 3920,
      "splen": 3921,
      "directed": 3922,
      "clamped": 3923,
      "endocarditis": 3924,
      "tubercul": 3925,
      "Hila": 3926,
      "flex": 3927,
      "influenza": 3928,
      "Irregular": 3929,
      "PLCMT": 3930,
      "Dou": 3931,
      "HCV": 3932,
      "IR": 3933,
      "LD": 3934,
      "Le": 3935,
      "MDS": 3936,
      "NSTEMI": 3937,
      "SICU": 3938,
      "T3": 3939,
      "To": 3940,
      "bed": 3941,
      "blun": 3942,
      "fis": 3943,
      "gent": 3944,
      "hr": 3945,
      "mul": 3946,
      "pedic": 3947,
      "range": 3948,
      "vr": 3949,
      "tectomy": 3950,
      "recur": 3951,
      "reticul": 3952,
      "thought": 3953,
      "aces": 3954,
      "dilation": 3955,
      "nec": 3956,
      "ulty": 3957,
      "ullness": 3958,
      "angitic": 3959,
      "matory": 3960,
      "STUD": 3961,
      "opl": 3962,
      "deli": 3963,
      "prostate": 3964,
      "radiography": 3965,
      "tention": 3966,
      "minished": 3967,
      "disorder": 3968,
      "spaces": 3969,
      "implant": 3970,
      "impression": 3971,
      "tracking": 3972,
      "FORM": 3973,
      "tively": 3974,
      "factor": 3975,
      "avr": 3976,
      "spiration": 3977,
      "Recent": 3978,
      "veins": 3979,
      "biventricular": 3980,
      "attention": 3981,
      "Adjacent": 3982,
      "Hyperex": 3983,
      "iber": 3984,
      "scout": 3985,
      "close": 3986,
      "Tortuous": 3987,
      "latest": 3988,
      "NSR": 3989,
      "Tube": 3990,
      "underpenetrated": 3991,
      "Verteb": 3992,
      "brain": 3993,
      "Metallic": 3994,
      "callus": 3995,
      "records": 3996,
      "take": 3997,
      "spont": 3998,
      "Suspect": 3999,
      "Costophrenic": 4000,
      "detail": 4001,
      "nasoenteric": 4002,
      "wedging": 4003,
      "exposure": 4004,
      "Ker": 4005,
      "MRI": 4006,
      "NE": 4007,
      "T4": 4008,
      "We": 4009,
      "ailed": 4010,
      "odular": 4011,
      "sural": 4012,
      "ub": 4013,
      "win": 4014,
      "x2": 4015,
      "heav": 4016,
      "reexpansion": 4017,
      "asp": 4018,
      "sited": 4019,
      "omatic": 4020,
      "unusual": 4021,
      "diminished": 4022,
      "olon": 4023,
      "extra": 4024,
      "containing": 4025,
      "intermittent": 4026,
      "overlap": 4027,
      "overinflation": 4028,
      "positive": 4029,
      "outflow": 4030,
      "asses": 4031,
      "tracheob": 4032,
      "stimul": 4033,
      "sternum": 4034,
      "definition": 4035,
      "colostomy": 4036,
      "cyst": 4037,
      "thickened": 4038,
      "rotator": 4039,
      "hemothoraces": 4040,
      "lobular": 4041,
      "aspects": 4042,
      "usea": 4043,
      "azygous": 4044,
      "ventilated": 4045,
      "CVA": 4046,
      "SBR": 4047,
      "Atelectatic": 4048,
      "Shallow": 4049,
      "eritone": 4050,
      "stabil": 4051,
      "Improving": 4052,
      "irregularity": 4053,
      "ITY": 4054,
      "Coar": 4055,
      "markers": 4056,
      "inflammatory": 4057,
      "Asymmetric": 4058,
      "symmetrical": 4059,
      "stripe": 4060,
      "medical": 4061,
      "turn": 4062,
      "ischemic": 4063,
      "diabetes": 4064,
      "zygomatic": 4065,
      "screw": 4066,
      "element": 4067,
      "Volume": 4068,
      "mechanical": 4069,
      "Dyspnea": 4070,
      "blunted": 4071,
      "fissural": 4072,
      "pedicle": 4073,
      "STUDY": 4074,
      "window": 4075,
      "stimulator": 4076,
      "Apart": 4077,
      "C3": 4078,
      "Cle": 4079,
      "GER": 4080,
      "II": 4081,
      "IM": 4082,
      "MON": 4083,
      "Pl": 4084,
      "Plate": 4085,
      "RT": 4086,
      "RCC": 4087,
      "RML": 4088,
      "est": 4089,
      "frag": 4090,
      "ix": 4091,
      "ng": 4092,
      "reach": 4093,
      "tib": 4094,
      "They": 4095,
      "ritis": 4096,
      "dimen": 4097,
      "eform": 4098,
      "chdal": 4099,
      "series": 4100,
      "abuse": 4101,
      "too": 4102,
      "resus": 4103,
      "respec": 4104,
      "caliber": 4105,
      "contrib": 4106,
      "Infe": 4107,
      "quite": 4108,
      "postop": 4109,
      "calcific": 4110,
      "broncho": 4111,
      "enceph": 4112,
      "fractured": 4113,
      "dylo": 4114,
      "extend": 4115,
      "affect": 4116,
      "filter": 4117,
      "desat": 4118,
      "mel": 4119,
      "omatosis": 4120,
      "difficulty": 4121,
      "lymphangitic": 4122,
      "hemopneumothorax": 4123,
      "exists": 4124,
      "cardiopulm": 4125,
      "dose": 4126,
      "copd": 4127,
      "confirmation": 4128,
      "temp": 4129,
      "ectatic": 4130,
      "deviated": 4131,
      "mastectomy": 4132,
      "Bochdal": 4133,
      "correlates": 4134,
      "accounts": 4135,
      "warf": 4136,
      "sensi": 4137,
      "pointing": 4138,
      "evolving": 4139,
      "sarcoidosis": 4140,
      "dementia": 4141,
      "radiodensity": 4142,
      "Currently": 4143,
      "sparing": 4144,
      "costochondral": 4145,
      "temporary": 4146,
      "MSSA": 4147,
      "determine": 4148,
      "occurred": 4149,
      "episode": 4150,
      "LUNG": 4151,
      "Kerley": 4152,
      "stabilization": 4153,
      "Clear": 4154,
      "dimension": 4155,
      "respectively": 4156,
      "Bochdalek": 4157,
      "HCAP": 4158,
      "Lo": 4159,
      "PV": 4160,
      "Pe": 4161,
      "TIP": 4162,
      "bm": 4163,
      "iency": 4164,
      "jun": 4165,
      "land": 4166,
      "ngt": 4167,
      "othorax": 4168,
      "spread": 4169,
      "xray": 4170,
      "arily": 4171,
      "indwelling": 4172,
      "island": 4173,
      "tium": 4174,
      "riding": 4175,
      "unrespon": 4176,
      "wide": 4177,
      "tual": 4178,
      "makes": 4179,
      "rop": 4180,
      "rods": 4181,
      "roduc": 4182,
      "opacified": 4183,
      "intersti": 4184,
      "aggressive": 4185,
      "discontinu": 4186,
      "manif": 4187,
      "manner": 4188,
      "spid": 4189,
      "subpulmonic": 4190,
      "introduc": 4191,
      "ject": 4192,
      "atively": 4193,
      "washou": 4194,
      "sideport": 4195,
      "chronicity": 4196,
      "cord": 4197,
      "cavity": 4198,
      "factual": 4199,
      "Concern": 4200,
      "esophagogastric": 4201,
      "self": 4202,
      "circum": 4203,
      "lucencies": 4204,
      "rounds": 4205,
      "iocarcinoma": 4206,
      "sulci": 4207,
      "suspicion": 4208,
      "Heal": 4209,
      "definitively": 4210,
      "artifactual": 4211,
      "GIB": 4212,
      "LOA": 4213,
      "embolization": 4214,
      "syncope": 4215,
      "PERFORM": 4216,
      "Semi": 4217,
      "brady": 4218,
      "vari": 4219,
      "SIDE": 4220,
      "PRES": 4221,
      "prolon": 4222,
      "nausea": 4223,
      "sigmo": 4224,
      "splenic": 4225,
      "Doubt": 4226,
      "NEW": 4227,
      "tracheobronch": 4228,
      "fragment": 4229,
      "resusc": 4230,
      "encephal": 4231,
      "prolonged": 4232,
      "ANG": 4233,
      "C6": 4234,
      "Dex": 4235,
      "EN": 4236,
      "Et": 4237,
      "Fullness": 4238,
      "HLD": 4239,
      "L1": 4240,
      "LAD": 4241,
      "MO": 4242,
      "MICU": 4243,
      "RVR": 4244,
      "Top": 4245,
      "get": 4246,
      "ked": 4247,
      "later": 4248,
      "lack": 4249,
      "lacer": 4250,
      "pular": 4251,
      "ying": 4252,
      "ziness": 4253,
      "anast": 4254,
      "eds": 4255,
      "enter": 4256,
      "unne": 4257,
      "umed": 4258,
      "nel": 4259,
      "consequ": 4260,
      "pleure": 4261,
      "entation": 4262,
      "ice": 4263,
      "ication": 4264,
      "cardio": 4265,
      "itary": 4266,
      "CHANG": 4267,
      "deep": 4268,
      "decreasing": 4269,
      "suture": 4270,
      "foci": 4271,
      "sizable": 4272,
      "ifted": 4273,
      "play": 4274,
      "weight": 4275,
      "predischarge": 4276,
      "ucency": 4277,
      "cuspid": 4278,
      "jejun": 4279,
      "similarly": 4280,
      "shifted": 4281,
      "persisting": 4282,
      "deno": 4283,
      "surface": 4284,
      "THERE": 4285,
      "Suture": 4286,
      "relation": 4287,
      "rectal": 4288,
      "suspect": 4289,
      "full": 4290,
      "Diffic": 4291,
      "attenuation": 4292,
      "involve": 4293,
      "involvement": 4294,
      "indicates": 4295,
      "exaggeration": 4296,
      "cholecy": 4297,
      "localiz": 4298,
      "generalized": 4299,
      "Appear": 4300,
      "curvilinear": 4301,
      "***": 4302,
      "osteophyte": 4303,
      "LOW": 4304,
      "tricuspid": 4305,
      "PMHx": 4306,
      "channel": 4307,
      "warran": 4308,
      "scapular": 4309,
      "regard": 4310,
      "immediate": 4311,
      "MRSA": 4312,
      "alcohol": 4313,
      "alcoholic": 4314,
      "Flu": 4315,
      "electro": 4316,
      "narrowing": 4317,
      "Consolidation": 4318,
      "documented": 4319,
      "immunosupp": 4320,
      "asbestos": 4321,
      "tuberculosis": 4322,
      "spontaneous": 4323,
      "affecting": 4324,
      "ropathy": 4325,
      "washout": 4326,
      "resuscitation": 4327,
      "Dextro": 4328,
      "unneled": 4329,
      "consequence": 4330,
      "warranted": 4331,
      "%),": 4332,
      "Ab": 4333,
      "C7": 4334,
      "CAR": 4335,
      "Deform": 4336,
      "Non": 4337,
      "Or": 4338,
      "PRO": 4339,
      "TO": 4340,
      "TR": 4341,
      "URI": 4342,
      "WE": 4343,
      "oti": 4344,
      "oabdominal": 4345,
      "put": 4346,
      "rs": 4347,
      "tunneled": 4348,
      "wet": 4349,
      "what": 4350,
      "information": 4351,
      "reques": 4352,
      "lep": 4353,
      "anemia": 4354,
      "unct": 4355,
      "uma": 4356,
      "ested": 4357,
      "INTER": 4358,
      "chors": 4359,
      "conventional": 4360,
      "ulcer": 4361,
      "ONE": 4362,
      "ablation": 4363,
      "tocol": 4364,
      "pping": 4365,
      "STAT": 4366,
      "operitone": 4367,
      "depic": 4368,
      "protocol": 4369,
      "derness": 4370,
      "strated": 4371,
      "tenderness": 4372,
      "spurring": 4373,
      "thoracostomy": 4374,
      "thoracoabdominal": 4375,
      "subacute": 4376,
      "projected": 4377,
      "tubing": 4378,
      "perivascular": 4379,
      "leading": 4380,
      "shallow": 4381,
      "fem": 4382,
      "juxt": 4383,
      "correlated": 4384,
      "obscure": 4385,
      "transfusion": 4386,
      "resides": 4387,
      "dysfunction": 4388,
      "longstanding": 4389,
      "loculation": 4390,
      "fissures": 4391,
      "components": 4392,
      "recommend": 4393,
      "Thus": 4394,
      "Postsurgical": 4395,
      "resultant": 4396,
      "diagnostic": 4397,
      "patch": 4398,
      "ternatively": 4399,
      "Possib": 4400,
      "elsewhere": 4401,
      "glenoid": 4402,
      "colonic": 4403,
      "sarcoma": 4404,
      "asymmetrically": 4405,
      "PleurX": 4406,
      "pyloric": 4407,
      "pylorus": 4408,
      "laparoscopic": 4409,
      "Redemonstrated": 4410,
      "nurse": 4411,
      "adenocarcinoma": 4412,
      "delirium": 4413,
      "Hyperexpansion": 4414,
      "bmt": 4415,
      "interstitium": 4416,
      "discontinuity": 4417,
      "bradycardia": 4418,
      "sigmoid": 4419,
      "EtOH": 4420,
      "Fluid": 4421,
      "requested": 4422,
      "unctate": 4423,
      "juxta": 4424,
      "2L": 4425,
      "AN": 4426,
      "All": 4427,
      "Ca": 4428,
      "DI": 4429,
      "DKA": 4430,
      "EB": 4431,
      "EG": 4432,
      "FUSION": 4433,
      "HO": 4434,
      "High": 4435,
      "ME": 4436,
      "MI": 4437,
      "MIN": 4438,
      "NOR": 4439,
      "Oro": 4440,
      "OPAC": 4441,
      "PC": 4442,
      "T12": 4443,
      "bil": 4444,
      "bro": 4445,
      "bub": 4446,
      "cri": 4447,
      "crow": 4448,
      "gall": 4449,
      "jus": 4450,
      "lous": 4451,
      "pushed": 4452,
      "sa": 4453,
      "uro": 4454,
      "vity": 4455,
      "arr": 4456,
      "test": 4457,
      "ision": 4458,
      "rec": 4459,
      "requent": 4460,
      "astic": 4461,
      "streak": 4462,
      "unable": 4463,
      "diast": 4464,
      "esis": 4465,
      "conne": 4466,
      "condition": 4467,
      "ability": 4468,
      "angular": 4469,
      "phoned": 4470,
      "cardial": 4471,
      "itself": 4472,
      "sures": 4473,
      "cemia": 4474,
      "motor": 4475,
      "RIOR": 4476,
      "distor": 4477,
      "distension": 4478,
      "Intra": 4479,
      "upward": 4480,
      "having": 4481,
      "vised": 4482,
      "genic": 4483,
      "lipomatosis": 4484,
      "dystro": 4485,
      "throm": 4486,
      "detect": 4487,
      "continuing": 4488,
      "coexisting": 4489,
      "Associated": 4490,
      "Newly": 4491,
      "resident": 4492,
      "descends": 4493,
      "Confi": 4494,
      "emer": 4495,
      "nodularity": 4496,
      "morph": 4497,
      "healing": 4498,
      "Diffusely": 4499,
      "indication": 4500,
      "telephoned": 4501,
      "requirements": 4502,
      "procedural": 4503,
      "temper": 4504,
      "Improvement": 4505,
      "EFFUSION": 4506,
      "peribronch": 4507,
      "sats": 4508,
      "Poor": 4509,
      "neutropenic": 4510,
      "PLEUR": 4511,
      "perforated": 4512,
      "epilep": 4513,
      "inflammation": 4514,
      "evolution": 4515,
      "laparotomy": 4516,
      "attributed": 4517,
      "osteodystro": 4518,
      "Tubes": 4519,
      "neoesophagus": 4520,
      "half": 4521,
      "antibiotics": 4522,
      "screws": 4523,
      "laceration": 4524,
      "Difficult": 4525,
      "immunosuppres": 4526,
      "otid": 4527,
      "NORMAL": 4528,
      "Orogastric": 4529,
      "bubble": 4530,
      "justed": 4531,
      "PLEURAL": 4532,
      "osteodystrophy": 4533,
      "Apical": 4534,
      "Clin": 4535,
      "DVT": 4536,
      "FE": 4537,
      "FI": 4538,
      "For": 4539,
      "LUL": 4540,
      "MV": 4541,
      "Ne": 4542,
      "OTH": 4543,
      "POS": 4544,
      "Sep": 4545,
      "Tra": 4546,
      "Vague": 4547,
      "dural": 4548,
      "fav": 4549,
      "ga": 4550,
      "mn": 4551,
      "mult": 4552,
      "ole": 4553,
      "ser": 4554,
      "ton": 4555,
      "void": 4556,
      "wer": 4557,
      "yn": 4558,
      "ored": 4559,
      "orto": 4560,
      "team": 4561,
      "anat": 4562,
      "ances": 4563,
      "theless": 4564,
      "asix": 4565,
      "thus": 4566,
      "acted": 4567,
      "rain": 4568,
      "serial": 4569,
      "bectomy": 4570,
      "because": 4571,
      "abn": 4572,
      "astatic": 4573,
      "magn": 4574,
      "atremia": 4575,
      "superim": 4576,
      "forward": 4577,
      "contacted": 4578,
      "prove": 4579,
      "valv": 4580,
      "press": 4581,
      "tence": 4582,
      "true": 4583,
      "output": 4584,
      "Inspi": 4585,
      "carotid": 4586,
      "placements": 4587,
      "traction": 4588,
      "tracheoplasty": 4589,
      "gional": 4590,
      "hyperlucency": 4591,
      "costal": 4592,
      "Minor": 4593,
      "portably": 4594,
      "archite": 4595,
      "102": 4596,
      "residing": 4597,
      "vertebra": 4598,
      "vertebroplasty": 4599,
      "Regional": 4600,
      "sectional": 4601,
      "ARY": 4602,
      "Diffe": 4603,
      "incidental": 4604,
      "predominately": 4605,
      "width": 4606,
      "hemorrhag": 4607,
      "accompanying": 4608,
      "sthetic": 4609,
      "Thoracolumbar": 4610,
      "localized": 4611,
      "production": 4612,
      "Hyperinflation": 4613,
      "wheeze": 4614,
      "must": 4615,
      "generally": 4616,
      "consideration": 4617,
      "emboli": 4618,
      "initially": 4619,
      "Subsequent": 4620,
      "Positive": 4621,
      "Metastatic": 4622,
      "EVAL": 4623,
      "AAA": 4624,
      "separation": 4625,
      "ERECT": 4626,
      "Presumed": 4627,
      "pathologic": 4628,
      "recurrence": 4629,
      "extrapleural": 4630,
      "GERD": 4631,
      "sensitive": 4632,
      "TIPS": 4633,
      "encephalopathy": 4634,
      "Possibility": 4635,
      "Confirm": 4636,
      "Clinical": 4637,
      "Inspiratory": 4638,
      "5cm": 4639,
      "BI": 4640,
      "Coumadin": 4641,
      "Di": 4642,
      "Event": 4643,
      "FO": 4644,
      "Has": 4645,
      "Hod": 4646,
      "Lucency": 4647,
      "MT": 4648,
      "OUS": 4649,
      "Pi": 4650,
      "SE": 4651,
      "TY": 4652,
      "VQ": 4653,
      "athero": 4654,
      "dden": 4655,
      "dry": 4656,
      "fair": 4657,
      "failed": 4658,
      "frequent": 4659,
      "gger": 4660,
      "iet": 4661,
      "kne": 4662,
      "mand": 4663,
      "mil": 4664,
      "o2": 4665,
      "pheral": 4666,
      "ru": 4667,
      "sum": 4668,
      "sened": 4669,
      "swelling": 4670,
      "uct": 4671,
      "arcoma": 4672,
      "insu": 4673,
      "readmitted": 4674,
      "anoma": 4675,
      "tiated": 4676,
      "tivity": 4677,
      "asia": 4678,
      "asties": 4679,
      "thin": 4680,
      "stration": 4681,
      "erved": 4682,
      "did": 4683,
      "diver": 4684,
      "neg": 4685,
      "necess": 4686,
      "eff": 4687,
      "effect": 4688,
      "raise": 4689,
      "pleur": 4690,
      "idural": 4691,
      "tobac": 4692,
      "liga": 4693,
      "veal": 4694,
      "dema": 4695,
      "dement": 4696,
      "sudden": 4697,
      "common": 4698,
      "comfort": 4699,
      "prote": 4700,
      "radiology": 4701,
      "ABNORMAL": 4702,
      "strong": 4703,
      "struct": 4704,
      "advised": 4705,
      "overinflated": 4706,
      "overdose": 4707,
      "peg": 4708,
      "discomfort": 4709,
      "therefore": 4710,
      "cap": 4711,
      "improve": 4712,
      "utable": 4713,
      "Infil": 4714,
      "overed": 4715,
      "thanks": 4716,
      "Pleu": 4717,
      "scars": 4718,
      "extended": 4719,
      "curled": 4720,
      "clinic": 4721,
      "Minimally": 4722,
      "facet": 4723,
      "showing": 4724,
      "Only": 4725,
      "metastasis": 4726,
      "nondisplaced": 4727,
      "risk": 4728,
      "indicated": 4729,
      "benign": 4730,
      "DES": 4731,
      "exaggerating": 4732,
      "Attention": 4733,
      "epidural": 4734,
      "cephalad": 4735,
      "cellul": 4736,
      "During": 4737,
      "collections": 4738,
      "bridement": 4739,
      "orientation": 4740,
      "Correlation": 4741,
      "contusions": 4742,
      "decompensation": 4743,
      "Peripheral": 4744,
      "duodenal": 4745,
      "osteopenic": 4746,
      "attributable": 4747,
      "workup": 4748,
      "palpit": 4749,
      "rupture": 4750,
      "cholangitis": 4751,
      "shape": 4752,
      "Well": 4753,
      "PVD": 4754,
      "Healed": 4755,
      "pleurex": 4756,
      "Appearance": 4757,
      "Dextroscoliosis": 4758,
      "Deformity": 4759,
      "depicted": 4760,
      "diastolic": 4761,
      "Trauma": 4762,
      "mnant": 4763,
      "magnified": 4764,
      "superimposition": 4765,
      "hemorrhagic": 4766,
      "Eventration": 4767,
      "Hodg": 4768,
      "Pigtail": 4769,
      "atherosclerosis": 4770,
      "fairly": 4771,
      "insuf": 4772,
      "ligament": 4773,
      "):": 4774,
      "3L": 4775,
      "AST": 4776,
      "DHT": 4777,
      "Edema": 4778,
      "HX": 4779,
      "Hardware": 4780,
      "MILD": 4781,
      "Never": 4782,
      "Our": 4783,
      "PH": 4784,
      "PAT": 4785,
      "PUL": 4786,
      "PRIOR": 4787,
      "TA": 4788,
      "au": 4789,
      "aph": 4790,
      "aorto": 4791,
      "dging": 4792,
      "eto": 4793,
      "hor": 4794,
      "hand": 4795,
      "hic": 4796,
      "iter": 4797,
      "lact": 4798,
      "lamin": 4799,
      "numer": 4800,
      "ovoid": 4801,
      "sle": 4802,
      "swe": 4803,
      "saturation": 4804,
      "tree": 4805,
      "tail": 4806,
      "arding": 4807,
      "onodular": 4808,
      "regres": 4809,
      "reveal": 4810,
      "anter": 4811,
      "anchors": 4812,
      "their": 4813,
      "til": 4814,
      "ache": 4815,
      "acia": 4816,
      "omon": 4817,
      "omal": 4818,
      "unaltered": 4819,
      "eral": 4820,
      "diz": 4821,
      "ulus": 4822,
      "ORIF": 4823,
      "anges": 4824,
      "monitor": 4825,
      "phag": 4826,
      "evi": 4827,
      "opath": 4828,
      "viral": 4829,
      "power": 4830,
      "debridement": 4831,
      "cept": 4832,
      "lecting": 4833,
      "expiratory": 4834,
      "comp": 4835,
      "ained": 4836,
      "pressures": 4837,
      "osarcoma": 4838,
      "ronically": 4839,
      "acutely": 4840,
      "manent": 4841,
      "caval": 4842,
      "perf": 4843,
      "patients": 4844,
      "impossible": 4845,
      "carb": 4846,
      "rential": 4847,
      "stitis": 4848,
      "ETOH": 4849,
      "worst": 4850,
      "representative": 4851,
      "vision": 4852,
      "pack": 4853,
      "coll": 4854,
      "collecting": 4855,
      "hypertrophic": 4856,
      "fluids": 4857,
      "ventral": 4858,
      "Sug": 4859,
      "extension": 4860,
      "metric": 4861,
      "cavitation": 4862,
      "cycle": 4863,
      "ficiency": 4864,
      "distally": 4865,
      "urg": 4866,
      "locations": 4867,
      "existed": 4868,
      "Medial": 4869,
      "sedated": 4870,
      "syst": 4871,
      "Changes": 4872,
      "passing": 4873,
      "Thank": 4874,
      "justment": 4875,
      "Prosthetic": 4876,
      "scribed": 4877,
      "TBM": 4878,
      "OSA": 4879,
      "ULD": 4880,
      "spiculated": 4881,
      "going": 4882,
      "goiter": 4883,
      "hepatitis": 4884,
      "characterization": 4885,
      "IVE": 4886,
      "kinked": 4887,
      "penetrated": 4888,
      "roplasties": 4889,
      "cranial": 4890,
      "bands": 4891,
      "embolism": 4892,
      "Seiz": 4893,
      "crosses": 4894,
      "Airspace": 4895,
      "tically": 4896,
      "Descending": 4897,
      "Flatten": 4898,
      "pseudomon": 4899,
      "exploratory": 4900,
      "Obscu": 4901,
      "reaction": 4902,
      "arynx": 4903,
      "Vertebral": 4904,
      "MONARY": 4905,
      "Infection": 4906,
      "warfarin": 4907,
      "circumscribed": 4908,
      "denote": 4909,
      "Orthopedic": 4910,
      "juxtahilar": 4911,
      "temperature": 4912,
      "Differential": 4913,
      "TYPE": 4914,
      "knee": 4915,
      "milli": 4916,
      "summation": 4917,
      "tobacco": 4918,
      "protection": 4919,
      "Infiltr": 4920,
      "cellulitis": 4921,
      "palpitations": 4922,
      "insufficiency": 4923,
      "PULMONARY": 4924,
      "etoh": 4925,
      "numerable": 4926,
      "sweats": 4927,
      "phagia": 4928,
      "%,": 4929,
      "Aspiration": 4930,
      "Back": 4931,
      "Bronchial": 4932,
      "CR": 4933,
      "CENT": 4934,
      "Carin": 4935,
      "DA": 4936,
      "DR": 4937,
      "Ef": 4938,
      "Es": 4939,
      "Free": 4940,
      "Less": 4941,
      "Lasix": 4942,
      "Ob": 4943,
      "SV": 4944,
      "Scoliosis": 4945,
      "SED": 4946,
      "SMAL": 4947,
      "T1": 4948,
      "Tri": 4949,
      "VAL": 4950,
      "aise": 4951,
      "cat": 4952,
      "cise": 4953,
      "coumadin": 4954,
      "dri": 4955,
      "gly": 4956,
      "gang": 4957,
      "gher": 4958,
      "nature": 4959,
      "spe": 4960,
      "utic": 4961,
      "you": 4962,
      "hes": 4963,
      "hedule": 4964,
      "org": 4965,
      "orthopedic": 4966,
      "return": 4967,
      "remnant": 4968,
      "lected": 4969,
      "tight": 4970,
      "asc": 4971,
      "assive": 4972,
      "tharg": 4973,
      "siven": 4974,
      "acid": 4975,
      "unlikely": 4976,
      "uncomplicated": 4977,
      "andoned": 4978,
      "tioned": 4979,
      "malaise": 4980,
      "abandoned": 4981,
      "lose": 4982,
      "make": 4983,
      "room": 4984,
      "root": 4985,
      "REF": 4986,
      "limin": 4987,
      "vehic": 4988,
      "etc": 4989,
      "ESTION": 4990,
      "cere": 4991,
      "exlap": 4992,
      "ogram": 4993,
      "radiol": 4994,
      "LECT": 4995,
      "radiographdemonstrates": 4996,
      "adder": 4997,
      "wean": 4998,
      "ossi": 4999,
      "overnight": 5000,
      "preoperative": 5001,
      "peutic": 5002,
      "discern": 5003,
      "higher": 5004,
      "duct": 5005,
      "cubi": 5006,
      "geries": 5007,
      "Rightward": 5008,
      "largest": 5009,
      "ophage": 5010,
      "izontal": 5011,
      "ERCP": 5012,
      "diff": 5013,
      "colitis": 5014,
      "cipital": 5015,
      "surgeries": 5016,
      "Moderately": 5017,
      "processes": 5018,
      "coughing": 5019,
      "ponatremia": 5020,
      "coinc": 5021,
      "Repeat": 5022,
      "exist": 5023,
      "dysphagia": 5024,
      "intraparenchymal": 5025,
      "involves": 5026,
      "XRT": 5027,
      "occipital": 5028,
      "looped": 5029,
      "schedule": 5030,
      "CCU": 5031,
      "dictated": 5032,
      "therapeutic": 5033,
      "Hyperinflated": 5034,
      "bulging": 5035,
      "bullous": 5036,
      "taking": 5037,
      "Pneumothorax": 5038,
      "IVF": 5039,
      "bridging": 5040,
      "oriented": 5041,
      "arthritis": 5042,
      "LOC": 5043,
      "latent": 5044,
      "adequately": 5045,
      "triple": 5046,
      "triangular": 5047,
      "ileus": 5048,
      "latter": 5049,
      "regarding": 5050,
      "epigastric": 5051,
      "ranial": 5052,
      "record": 5053,
      "PACS": 5054,
      "Redemonstration": 5055,
      "planted": 5056,
      "bullae": 5057,
      "Transvenous": 5058,
      "intracranial": 5059,
      "occupi": 5060,
      "occupy": 5061,
      "heavily": 5062,
      "Coarse": 5063,
      "IMPRES": 5064,
      "contribute": 5065,
      "dylotic": 5066,
      "manifest": 5067,
      "tracheobronchoplasty": 5068,
      "getting": 5069,
      "INTERVAL": 5070,
      "distortion": 5071,
      "diverticul": 5072,
      "ABNORMALITY": 5073,
      "Hodgkin": 5074,
      "dizziness": 5075,
      "systolic": 5076,
      "Carina": 5077,
      "Effusion": 5078,
      "Esophage": 5079,
      "SMALL": 5080,
      "tightness": 5081,
      "thargy": 5082,
      "acidosis": 5083,
      "vehicle": 5084,
      "cubitus": 5085,
      "Esophageal": 5086,
      ".--": 5087,
      "3cm": 5088,
      "6am": 5089,
      "BS": 5090,
      "Base": 5091,
      "Bronch": 5092,
      "Ce": 5093,
      "CNS": 5094,
      "Even": 5095,
      "Frac": 5096,
      "Gastric": 5097,
      "Hi": 5098,
      "HCC": 5099,
      "IOUS": 5100,
      "Kyph": 5101,
      "LLE": 5102,
      "Lay": 5103,
      "Lumbar": 5104,
      "Mit": 5105,
      "Massive": 5106,
      "PFI": 5107,
      "RLE": 5108,
      "Scle": 5109,
      "Spon": 5110,
      "T2": 5111,
      "TV": 5112,
      "TSICU": 5113,
      "UB": 5114,
      "bx": 5115,
      "care": 5116,
      "cing": 5117,
      "echo": 5118,
      "final": 5119,
      "globular": 5120,
      "hold": 5121,
      "idi": 5122,
      "iolar": 5123,
      "mv": 5124,
      "max": 5125,
      "mening": 5126,
      "mvr": 5127,
      "rvr": 5128,
      "sw": 5129,
      "stial": 5130,
      "vole": 5131,
      "x1": 5132,
      "x3": 5133,
      "xn": 5134,
      "yed": 5135,
      "hepa": 5136,
      "ality": 5137,
      "alternatively": 5138,
      "infusion": 5139,
      "induc": 5140,
      "ory": 5141,
      "orted": 5142,
      "ising": 5143,
      "issen": 5144,
      "refrac": 5145,
      "asible": 5146,
      "sile": 5147,
      "sible": 5148,
      "sides": 5149,
      "stomy": 5150,
      "stance": 5151,
      "stay": 5152,
      "omogeneous": 5153,
      "chronically": 5154,
      "pleg": 5155,
      "seed": 5156,
      "seating": 5157,
      "seem": 5158,
      "iding": 5159,
      "abx": 5160,
      "angulation": 5161,
      "destruc": 5162,
      "decompression": 5163,
      "depression": 5164,
      "come": 5165,
      "interstial": 5166,
      "culation": 5167,
      "culoperitone": 5168,
      "movement": 5169,
      "verb": 5170,
      "tended": 5171,
      "admin": 5172,
      "oscoliosis": 5173,
      "tran": 5174,
      "COULD": 5175,
      "acement": 5176,
      "RIJ": 5177,
      "precise": 5178,
      "uppermost": 5179,
      "caud": 5180,
      "tenting": 5181,
      "subje": 5182,
      "subcarinal": 5183,
      "hyd": 5184,
      "hyponatremia": 5185,
      "comparisons": 5186,
      "geal": 5187,
      "calcium": 5188,
      "ize": 5189,
      "steroid": 5190,
      "centrally": 5191,
      "hypercarb": 5192,
      "feeds": 5193,
      "feasible": 5194,
      "underinflated": 5195,
      "cavitary": 5196,
      "formations": 5197,
      "great": 5198,
      "overloaded": 5199,
      "pancreas": 5200,
      "pansile": 5201,
      "showed": 5202,
      "barium": 5203,
      "transesophageal": 5204,
      "spiking": 5205,
      "densely": 5206,
      "headache": 5207,
      "ibular": 5208,
      "scen": 5209,
      "ULAR": 5210,
      "dextroconvex": 5211,
      "peripherally": 5212,
      "kyphoplasty": 5213,
      "Impression": 5214,
      "receiving": 5215,
      "block": 5216,
      "margins": 5217,
      "Density": 5218,
      "oblite": 5219,
      "obliter": 5220,
      "Cordis": 5221,
      "iliac": 5222,
      "accounted": 5223,
      "Coil": 5224,
      "chondr": 5225,
      "ashboard": 5226,
      "bladder": 5227,
      "regurg": 5228,
      "POD___": 5229,
      "nerve": 5230,
      "striking": 5231,
      "electronic": 5232,
      "pseudo": 5233,
      "Basal": 5234,
      "look": 5235,
      "ventilator": 5236,
      "reticulonodular": 5237,
      "oplastic": 5238,
      "symmetrically": 5239,
      "melanoma": 5240,
      "Perib": 5241,
      "unresponsive": 5242,
      "variant": 5243,
      "SIDED": 5244,
      "iceal": 5245,
      "cholecystitis": 5246,
      "LOWER": 5247,
      "CARDI": 5248,
      "crowded": 5249,
      "gallst": 5250,
      "morphology": 5251,
      "peribronchiolar": 5252,
      "anatom": 5253,
      "valvular": 5254,
      "ietal": 5255,
      "mandibular": 5256,
      "Nevertheless": 5257,
      "laminectomy": 5258,
      "sleeve": 5259,
      "omalacia": 5260,
      "opathic": 5261,
      "pseudomonas": 5262,
      "millimetric": 5263,
      "Infiltrate": 5264,
      "glycemia": 5265,
      "siveness": 5266,
      "coinciding": 5267,
      "IMPRESSION": 5268,
      "manifestation": 5269,
      "diverticulitis": 5270,
      "Baseline": 5271,
      "Hiatal": 5272,
      "Layering": 5273,
      "Mitral": 5274,
      "Spondylotic": 5275,
      "idiopathic": 5276,
      "refractory": 5277,
      "culoperitoneal": 5278,
      "subjective": 5279,
      "regurgitation": 5280,
      "AF": 5281,
      "AI": 5282,
      "AX": 5283,
      "BD": 5284,
      "Bx": 5285,
      "Band": 5286,
      "Bul": 5287,
      "ECM": 5288,
      "FA": 5289,
      "GN": 5290,
      "Gaseous": 5291,
      "Ha": 5292,
      "Hep": 5293,
      "ID": 5294,
      "L3": 5295,
      "Los": 5296,
      "NA": 5297,
      "Ni": 5298,
      "Nissen": 5299,
      "Pt": 5300,
      "PCP": 5301,
      "Ref": 5302,
      "Rib": 5303,
      "Rot": 5304,
      "SS": 5305,
      "Size": 5306,
      "T11": 5307,
      "Tachy": 5308,
      "UN": 5309,
      "UT": 5310,
      "cation": 5311,
      "coun": 5312,
      "ccess": 5313,
      "don": 5314,
      "erence": 5315,
      "far": 5316,
      "flo": 5317,
      "gration": 5318,
      "ies": 5319,
      "medic": 5320,
      "nula": 5321,
      "obe": 5322,
      "pin": 5323,
      "rate": 5324,
      "rol": 5325,
      "rout": 5326,
      "sv": 5327,
      "tb": 5328,
      "tom": 5329,
      "tration": 5330,
      "ueral": 5331,
      "zing": 5332,
      "ina": 5333,
      "reactive": 5334,
      "remission": 5335,
      "revision": 5336,
      "lethargy": 5337,
      "antr": 5338,
      "antic": 5339,
      "anchor": 5340,
      "tizing": 5341,
      "sites": 5342,
      "across": 5343,
      "start": 5344,
      "unexplained": 5345,
      "wit": 5346,
      "nectomy": 5347,
      "effu": 5348,
      "ching": 5349,
      "conver": 5350,
      "pneic": 5351,
      "ingested": 5352,
      "ORAX": 5353,
      "tually": 5354,
      "ATES": 5355,
      "robo": 5356,
      "rotizing": 5357,
      "atonia": 5358,
      "cardiomediastinum": 5359,
      "RECOM": 5360,
      "pped": 5361,
      "operation": 5362,
      "called": 5363,
      "deposi": 5364,
      "decubitus": 5365,
      "success": 5366,
      "exact": 5367,
      "probe": 5368,
      "proble": 5369,
      "clearance": 5370,
      "_________________": 5371,
      "foot": 5372,
      "intervention": 5373,
      "cult": 5374,
      "culated": 5375,
      "mosis": 5376,
      "adrenal": 5377,
      "trast": 5378,
      "agitation": 5379,
      "discontinued": 5380,
      "migration": 5381,
      "five": 5382,
      "clar": 5383,
      "permanent": 5384,
      "gestion": 5385,
      "subdural": 5386,
      "carcer": 5387,
      "quity": 5388,
      "quality": 5389,
      "mainly": 5390,
      "Comple": 5391,
      "blebs": 5392,
      "flushed": 5393,
      "atrio": 5394,
      "using": 5395,
      "cannula": 5396,
      "persistence": 5397,
      "denser": 5398,
      "IES": 5399,
      "infections": 5400,
      "_________________________________________________________________________________": 5401,
      "mean": 5402,
      "issues": 5403,
      "Intermittent": 5404,
      "CLL": 5405,
      "ports": 5406,
      "complex": 5407,
      "pnx": 5408,
      "Contrast": 5409,
      "step": 5410,
      "intrafissural": 5411,
      "folding": 5412,
      "accident": 5413,
      "projections": 5414,
      "projectional": 5415,
      "occlusion": 5416,
      "ACE": 5417,
      "thyroidectomy": 5418,
      "situation": 5419,
      "carcinomatosis": 5420,
      "optimally": 5421,
      "wheezes": 5422,
      "aneurysmal": 5423,
      "diuresed": 5424,
      "crani": 5425,
      "olysis": 5426,
      "considering": 5427,
      "control": 5428,
      "Moreover": 5429,
      "ITION": 5430,
      "Resol": 5431,
      "pleuroparenchymal": 5432,
      "annulus": 5433,
      "crossing": 5434,
      "pelvic": 5435,
      "Asymmetrical": 5436,
      "Despite": 5437,
      "centimeter": 5438,
      "mesenteric": 5439,
      "Basilar": 5440,
      "dentation": 5441,
      "TERMIN": 5442,
      "explorations": 5443,
      "shaft": 5444,
      "those": 5445,
      "choriocarcinoma": 5446,
      "aryngeal": 5447,
      "ventilatory": 5448,
      "Lead": 5449,
      "bedside": 5450,
      "reticulation": 5451,
      "factors": 5452,
      "assesment": 5453,
      "Pls": 5454,
      "Loculated": 5455,
      "introduction": 5456,
      "anastom": 5457,
      "localizing": 5458,
      "femur": 5459,
      "MEND": 5460,
      "connected": 5461,
      "thromb": 5462,
      "emergent": 5463,
      "immunosuppression": 5464,
      "MVA": 5465,
      "OTHORAX": 5466,
      "vertebrae": 5467,
      "ruled": 5468,
      "strongly": 5469,
      "Pleura": 5470,
      "horizontal": 5471,
      "Obscuration": 5472,
      "Sclerotic": 5473,
      "seems": 5474,
      "verbally": 5475,
      "hydration": 5476,
      "pseudoaneurysm": 5477,
      "Peribronchial": 5478,
      "ECMO": 5479,
      "Loss": 5480,
      "Nipple": 5481,
      "Rotated": 5482,
      "floor": 5483,
      "routine": 5484,
      "antrum": 5485,
      "RECOMMEND": 5486,
      "deposits": 5487,
      "carcerated": 5488,
      "Azyg": 5489,
      "BAL": 5490,
      "BAS": 5491,
      "CD": 5492,
      "Col": 5493,
      "Cour": 5494,
      "CREA": 5495,
      "Close": 5496,
      "Dil": 5497,
      "Emphysema": 5498,
      "Ext": 5499,
      "Fu": 5500,
      "Fur": 5501,
      "GESTION": 5502,
      "HE": 5503,
      "Hx": 5504,
      "MENT": 5505,
      "NC": 5506,
      "OVER": 5507,
      "Pulm": 5508,
      "Punctate": 5509,
      "RAL": 5510,
      "SIN": 5511,
      "Soft": 5512,
      "Somewhat": 5513,
      "URE": 5514,
      "VE": 5515,
      "VIOUS": 5516,
      "bral": 5517,
      "blast": 5518,
      "cres": 5519,
      "cture": 5520,
      "cosis": 5521,
      "ctus": 5522,
      "dashboard": 5523,
      "eight": 5524,
      "estab": 5525,
      "grow": 5526,
      "glob": 5527,
      "gist": 5528,
      "hn": 5529,
      "hard": 5530,
      "homogeneous": 5531,
      "ious": 5532,
      "mediastin": 5533,
      "mente": 5534,
      "nine": 5535,
      "punctate": 5536,
      "p_________________________________________________________________________________": 5537,
      "splay": 5538,
      "tly": 5539,
      "hep": 5540,
      "hemia": 5541,
      "incarcerated": 5542,
      "oroph": 5543,
      "req": 5544,
      "recon": 5545,
      "repo": 5546,
      "repe": 5547,
      "reme": 5548,
      "len": 5549,
      "anation": 5550,
      "acath": 5551,
      "accur": 5552,
      "activity": 5553,
      "rious": 5554,
      "stra": 5555,
      "stostomy": 5556,
      "nolo": 5557,
      "neuro": 5558,
      "conf": 5559,
      "conclu": 5560,
      "pneu": 5561,
      "segmental": 5562,
      "angio": 5563,
      "ardiac": 5564,
      "mamm": 5565,
      "phalization": 5566,
      "pharynx": 5567,
      "litus": 5568,
      "evening": 5569,
      "opic": 5570,
      "sust": 5571,
      "PAIN": 5572,
      "older": 5573,
      "radiating": 5574,
      "interpre": 5575,
      "tendin": 5576,
      "mind": 5577,
      "plueral": 5578,
      "adjusted": 5579,
      "adjustment": 5580,
      "osopic": 5581,
      "overing": 5582,
      "pred": 5583,
      "display": 5584,
      "ucity": 5585,
      "object": 5586,
      "antrectomy": 5587,
      "implanted": 5588,
      "utation": 5589,
      "subjacent": 5590,
      "ticus": 5591,
      "omycosis": 5592,
      "amic": 5593,
      "ETER": 5594,
      "endplate": 5595,
      "Compare": 5596,
      "defic": 5597,
      "reflected": 5598,
      "aily": 5599,
      "infiltration": 5600,
      "bronchosopic": 5601,
      "gency": 5602,
      "IENT": 5603,
      "femor": 5604,
      "fective": 5605,
      "And": 5606,
      "Stability": 5607,
      "distance": 5608,
      "hypovole": 5609,
      "walls": 5610,
      "portant": 5611,
      "portacath": 5612,
      "substantiated": 5613,
      "supporting": 5614,
      "101": 5615,
      "PTx": 5616,
      "transbronchial": 5617,
      "Replaced": 5618,
      "Oste": 5619,
      "Preop": 5620,
      "Conventional": 5621,
      "advancing": 5622,
      "bifur": 5623,
      "bigger": 5624,
      "circular": 5625,
      "Except": 5626,
      "CONGESTION": 5627,
      "Calcific": 5628,
      "predominating": 5629,
      "confirms": 5630,
      "occ": 5631,
      "occult": 5632,
      "exaggerate": 5633,
      "ductive": 5634,
      "Productive": 5635,
      "bronchogram": 5636,
      "postoperatively": 5637,
      "drop": 5638,
      "situated": 5639,
      "conveyed": 5640,
      "mask": 5641,
      "explanation": 5642,
      "myo": 5643,
      "IVH": 5644,
      "Poten": 5645,
      "Markedly": 5646,
      "hospit": 5647,
      "considerable": 5648,
      "considerably": 5649,
      "CML": 5650,
      "nephropathy": 5651,
      "reason": 5652,
      "Remaining": 5653,
      "variceal": 5654,
      "mentioned": 5655,
      "suctioning": 5656,
      "spondylo": 5657,
      "PNEUMOTHORAX": 5658,
      "Desaturation": 5659,
      "PREVIOUS": 5660,
      "splenectomy": 5661,
      "HFp": 5662,
      "direction": 5663,
      "Suspected": 5664,
      "number": 5665,
      "ischemia": 5666,
      "diabetic": 5667,
      "Based": 5668,
      "narrowed": 5669,
      "spared": 5670,
      "sequelae": 5671,
      "pathological": 5672,
      "Observed": 5673,
      "flexed": 5674,
      "closely": 5675,
      "Vertebroplasty": 5676,
      "aspir": 5677,
      "Placement": 5678,
      "mellitus": 5679,
      "Pectus": 5680,
      "entering": 5681,
      "CHANGED": 5682,
      "jejunum": 5683,
      "electrode": 5684,
      "electrodes": 5685,
      "Catheter": 5686,
      "broad": 5687,
      "testinal": 5688,
      "streaks": 5689,
      "EFFUSIONS": 5690,
      "epilepticus": 5691,
      "POSITION": 5692,
      "abnl": 5693,
      "necessarily": 5694,
      "PATIENT": 5695,
      "lactate": 5696,
      "regressed": 5697,
      "collision": 5698,
      "Suggestion": 5699,
      "Flattening": 5700,
      "CRRT": 5701,
      "SVG": 5702,
      "catatonia": 5703,
      "organ": 5704,
      "liminary": 5705,
      "ossification": 5706,
      "occupying": 5707,
      "Cephalization": 5708,
      "T2DM": 5709,
      "hepato": 5710,
      "steroids": 5711,
      "obliterating": 5712,
      "Coils": 5713,
      "AIDS": 5714,
      "obesity": 5715,
      "robotic": 5716,
      "Complete": 5717,
      "atriocaval": 5718,
      "meantime": 5719,
      "controlled": 5720,
      "Course": 5721,
      "Extreme": 5722,
      "Fusion": 5723,
      "Further": 5724,
      "SINCE": 5725,
      "blastomycosis": 5726,
      "establ": 5727,
      "mentectomy": 5728,
      "accurately": 5729,
      "nologist": 5730,
      "conclusive": 5731,
      "femoral": 5732,
      "spondylosis": 5733,
      ",,": 5734,
      "/-": 5735,
      "1cm": 5736,
      "4th": 5737,
      "6th": 5738,
      "7pm": 5739,
      "Af": 5740,
      "BB": 5741,
      "BY": 5742,
      "Bet": 5743,
      "BMT": 5744,
      "CAT": 5745,
      "CULAR": 5746,
      "DF": 5747,
      "DL": 5748,
      "Dia": 5749,
      "EDE": 5750,
      "FIC": 5751,
      "Fall": 5752,
      "Farr": 5753,
      "Gas": 5754,
      "HY": 5755,
      "HETER": 5756,
      "ICH": 5757,
      "Ly": 5758,
      "MED": 5759,
      "Near": 5760,
      "NING": 5761,
      "NCE": 5762,
      "Pain": 5763,
      "RN": 5764,
      "RR": 5765,
      "RU": 5766,
      "RV": 5767,
      "RIC": 5768,
      "Revi": 5769,
      "SP": 5770,
      "Stent": 5771,
      "Stro": 5772,
      "TACE": 5773,
      "Vent": 5774,
      "VAD": 5775,
      "VAS": 5776,
      "YS": 5777,
      "aute": 5778,
      "amosis": 5779,
      "br": 5780,
      "cou": 5781,
      "core": 5782,
      "cence": 5783,
      "covered": 5784,
      "dinal": 5785,
      "dors": 5786,
      "dopl": 5787,
      "dwarf": 5788,
      "daily": 5789,
      "elective": 5790,
      "ganz": 5791,
      "ht": 5792,
      "hia": 5793,
      "kinf": 5794,
      "lon": 5795,
      "mus": 5796,
      "nison": 5797,
      "nage": 5798,
      "olectomy": 5799,
      "pate": 5800,
      "p___": 5801,
      "pted": 5802,
      "rough": 5803,
      "sac": 5804,
      "som": 5805,
      "sening": 5806,
      "scoli": 5807,
      "tap": 5808,
      "tact": 5809,
      "zed": 5810,
      "arms": 5811,
      "once": 5812,
      "inv": 5813,
      "inclusion": 5814,
      "indentation": 5815,
      "orrow": 5816,
      "ortho": 5817,
      "isted": 5818,
      "reintubated": 5819,
      "anterolateral": 5820,
      "till": 5821,
      "asion": 5822,
      "thro": 5823,
      "sits": 5824,
      "oup": 5825,
      "outer": 5826,
      "ers": 5827,
      "umn": 5828,
      "noclavicular": 5829,
      "neoplastic": 5830,
      "___pm": 5831,
      "chnage": 5832,
      "ONAL": 5833,
      "seus": 5834,
      "serious": 5835,
      "become": 5836,
      "tudinal": 5837,
      "ATRI": 5838,
      "astro": 5839,
      "mat": 5840,
      "icu": 5841,
      "icolateral": 5842,
      "ctural": 5843,
      "cardiovascular": 5844,
      "itant": 5845,
      "ALS": 5846,
      "RECENT": 5847,
      "ppd": 5848,
      "lia": 5849,
      "CHE": 5850,
      "opos": 5851,
      "veri": 5852,
      "dehis": 5853,
      "extraction": 5854,
      "comitant": 5855,
      "contact": 5856,
      "appl": 5857,
      "append": 5858,
      "interventional": 5859,
      "pressive": 5860,
      "tenth": 5861,
      "minuted": 5862,
      "creted": 5863,
      "appearances": 5864,
      "osseus": 5865,
      "tras": 5866,
      "presentation": 5867,
      "ronodular": 5868,
      "ificance": 5869,
      "ucencies": 5870,
      "clage": 5871,
      "percutaneous": 5872,
      "talc": 5873,
      "midthoracic": 5874,
      "uting": 5875,
      "submassive": 5876,
      "Innumerable": 5877,
      "Intact": 5878,
      "airleak": 5879,
      "cartil": 5880,
      "quanti": 5881,
      "against": 5882,
      "apicolateral": 5883,
      "asep": 5884,
      "tinged": 5885,
      "upus": 5886,
      "significance": 5887,
      "ophoff": 5888,
      "ostosis": 5889,
      "tubular": 5890,
      "reference": 5891,
      "flank": 5892,
      "period": 5893,
      "periton": 5894,
      "Asthma": 5895,
      "gitudinal": 5896,
      "levo": 5897,
      "sternoclavicular": 5898,
      "column": 5899,
      "surve": 5900,
      "THRO": 5901,
      "hyperostosis": 5902,
      "relap": 5903,
      "desatu": 5904,
      "curve": 5905,
      "undergoing": 5906,
      "CLC": 5907,
      "rhabd": 5908,
      "pnue": 5909,
      "Endobronchial": 5910,
      "progress": 5911,
      "Reticular": 5912,
      "Preoperative": 5913,
      "Concurrent": 5914,
      "questioned": 5915,
      "Radiopaque": 5916,
      "circulation": 5917,
      "Excreted": 5918,
      "MediPort": 5919,
      "tachypn": 5920,
      "cussion": 5921,
      "restric": 5922,
      "restrain": 5923,
      "cry": 5924,
      "Adv": 5925,
      "osteomy": 5926,
      "Thick": 5927,
      "benef": 5928,
      "pericardium": 5929,
      "ASH": 5930,
      "ASIS": 5931,
      "gastrectomy": 5932,
      "cellular": 5933,
      "ocyst": 5934,
      "chole": 5935,
      "ACDF": 5936,
      "lami": 5937,
      "optimi": 5938,
      "UPPER": 5939,
      "thyroidism": 5940,
      "30pm": 5941,
      "readjusted": 5942,
      "bullectomy": 5943,
      "00am": 5944,
      "general": 5945,
      "conspicuity": 5946,
      "fundopl": 5947,
      "paresis": 5948,
      "istration": 5949,
      "penetration": 5950,
      "needed": 5951,
      "arthropathy": 5952,
      "arthroplasties": 5953,
      "obliquity": 5954,
      "gland": 5955,
      "NSIP": 5956,
      "ITIES": 5957,
      "amputation": 5958,
      "traversing": 5959,
      "coarsening": 5960,
      "Fibrotic": 5961,
      "certainly": 5962,
      "attempted": 5963,
      "primarily": 5964,
      "EVD": 5965,
      "symmetric": 5966,
      "mesis": 5967,
      "pseudocyst": 5968,
      "separately": 5969,
      "Considering": 5970,
      "Consolidative": 5971,
      "Tubular": 5972,
      "Indistinctness": 5973,
      "ERENCE": 5974,
      "nursing": 5975,
      "Transesophageal": 5976,
      "cholangiocarcinoma": 5977,
      "reaches": 5978,
      "ATELECT": 5979,
      "flexure": 5980,
      "Irregularity": 5981,
      "Today": 5982,
      "necrotizing": 5983,
      "heavy": 5984,
      "Coarsened": 5985,
      "reaching": 5986,
      "contributing": 5987,
      "bronchovasculature": 5988,
      "Loo": 5989,
      "unresponsiveness": 5990,
      "manifested": 5991,
      "fragments": 5992,
      "anastamosis": 5993,
      "cholecystostomy": 5994,
      "WEEK": 5995,
      "rsxn": 5996,
      "EBV": 5997,
      "EBUS": 5998,
      "PCI": 5999,
      "critical": 6000,
      "safe": 6001,
      "epilepsy": 6002,
      "FEVER": 6003,
      "Sepsis": 6004,
      "favor": 6005,
      "pressor": 6006,
      "pressors": 6007,
      "architecture": 6008,
      "architectural": 6009,
      "tailored": 6010,
      "anteropos": 6011,
      "comprom": 6012,
      "Seizure": 6013,
      "Background": 6014,
      "Triple": 6015,
      "ganglia": 6016,
      "speak": 6017,
      "REFERENCE": 6018,
      "occupies": 6019,
      "holds": 6020,
      "swallow": 6021,
      "induced": 6022,
      "administration": 6023,
      "scene": 6024,
      "anatomic": 6025,
      "Tachypnea": 6026,
      "tomorrow": 6027,
      "starting": 6028,
      "problems": 6029,
      "TERMINATES": 6030,
      "anastomosis": 6031,
      "splaying": 6032,
      "sustaining": 6033,
      "prednison": 6034,
      "hypovolemic": 6035,
      "bifurcation": 6036,
      "hospitalization": 6037,
      "HFpEF": 6038,
      "Better": 6039,
      "CATHETER": 6040,
      "EDEMA": 6041,
      "Lymph": 6042,
      "Review": 6043,
      "Stroke": 6044,
      "VASCULAR": 6045,
      "couple": 6046,
      "dorsal": 6047,
      "dwarfism": 6048,
      "hiatus": 6049,
      "kinfold": 6050,
      "longitudinal": 6051,
      "somno": 6052,
      "scoliotic": 6053,
      "ATRIUM": 6054,
      "appendage": 6055,
      "peritonitis": 6056,
      "THROUGH": 6057,
      "restrained": 6058,
      "fundoplication": 6059,
      "ATELECTASIS": 6060,
      "anteroposterior": 6061,
      "prednisone": 6062,
      "0s": 6063,
      "1st": 6064,
      "2pm": 6065,
      "??": 6066,
      "Ar": 6067,
      "Ano": 6068,
      "ANT": 6069,
      "BP": 6070,
      "Bed": 6071,
      "Biliary": 6072,
      "C1": 6073,
      "Can": 6074,
      "Cir": 6075,
      "CER": 6076,
      "DU": 6077,
      "DATION": 6078,
      "Drain": 6079,
      "Evol": 6080,
      "ECT": 6081,
      "Equivocal": 6082,
      "GO": 6083,
      "HC": 6084,
      "Host": 6085,
      "KE": 6086,
      "KER": 6087,
      "LAR": 6088,
      "Ms": 6089,
      "My": 6090,
      "Most": 6091,
      "NJ": 6092,
      "NASH": 6093,
      "OB": 6094,
      "OW": 6095,
      "Out": 6096,
      "Pul": 6097,
      "QU": 6098,
      "RON": 6099,
      "SH": 6100,
      "Smo": 6101,
      "Sud": 6102,
      "SCT": 6103,
      "SVT": 6104,
      "Still": 6105,
      "T7": 6106,
      "UGIB": 6107,
      "VO": 6108,
      "Wet": 6109,
      "Wedge": 6110,
      "aw": 6111,
      "atures": 6112,
      "ault": 6113,
      "bc": 6114,
      "bur": 6115,
      "bran": 6116,
      "cli": 6117,
      "ched": 6118,
      "dx": 6119,
      "dophoff": 6120,
      "eper": 6121,
      "fine": 6122,
      "flowing": 6123,
      "gy": 6124,
      "gam": 6125,
      "ginal": 6126,
      "hct": 6127,
      "hair": 6128,
      "ither": 6129,
      "iomy": 6130,
      "ipul": 6131,
      "lu": 6132,
      "nut": 6133,
      "name": 6134,
      "othoracic": 6135,
      "pment": 6136,
      "rum": 6137,
      "rug": 6138,
      "slow": 6139,
      "tac": 6140,
      "tation": 6141,
      "ttle": 6142,
      "uter": 6143,
      "vary": 6144,
      "vats": 6145,
      "vilinear": 6146,
      "want": 6147,
      "xate": 6148,
      "yrs": 6149,
      "alle": 6150,
      "ales": 6151,
      "inary": 6152,
      "insti": 6153,
      "inuation": 6154,
      "inhal": 6155,
      "rese": 6156,
      "represented": 6157,
      "retur": 6158,
      "leiomy": 6159,
      "ana": 6160,
      "anced": 6161,
      "tigu": 6162,
      "titis": 6163,
      "enh": 6164,
      "ential": 6165,
      "enchondr": 6166,
      "sick": 6167,
      "rition": 6168,
      "riction": 6169,
      "riculoperitoneal": 6170,
      "strep": 6171,
      "erring": 6172,
      "diet": 6173,
      "wider": 6174,
      "noid": 6175,
      "never": 6176,
      "neither": 6177,
      "___D": 6178,
      "___th": 6179,
      "___ft": 6180,
      "efface": 6181,
      "content": 6182,
      "congen": 6183,
      "concomitant": 6184,
      "uloplasty": 6185,
      "fused": 6186,
      "pneuma": 6187,
      "entall": 6188,
      "begin": 6189,
      "besides": 6190,
      "tution": 6191,
      "pneumopericardium": 6192,
      "earm": 6193,
      "angi": 6194,
      "making": 6195,
      "tocri": 6196,
      "togenic": 6197,
      "roof": 6198,
      "changing": 6199,
      "monia": 6200,
      "atx": 6201,
      "atis": 6202,
      "attery": 6203,
      "atbaseline": 6204,
      "cardiograph": 6205,
      "ALI": 6206,
      "ALSO": 6207,
      "veil": 6208,
      "vir": 6209,
      "parac": 6210,
      "degener": 6211,
      "deeper": 6212,
      "forearm": 6213,
      "exclud": 6214,
      "exclusion": 6215,
      "expansile": 6216,
      "silateral": 6217,
      "contain": 6218,
      "continuation": 6219,
      "appar": 6220,
      "radiolog": 6221,
      "interposition": 6222,
      "ABPA": 6223,
      "vertical": 6224,
      "tendon": 6225,
      "weigh": 6226,
      "osed": 6227,
      "from___": 6228,
      "discoid": 6229,
      "discussion": 6230,
      "discontinuation": 6231,
      "mix": 6232,
      "outlin": 6233,
      "manu": 6234,
      "manage": 6235,
      "span": 6236,
      "dua": 6237,
      "llation": 6238,
      "thoracoscopy": 6239,
      "imp": 6240,
      "impac": 6241,
      "important": 6242,
      "subtotal": 6243,
      "subtly": 6244,
      "termination": 6245,
      "tracks": 6246,
      "endogastric": 6247,
      "endovascular": 6248,
      "posttraumatic": 6249,
      "cerclage": 6250,
      "blebectomy": 6251,
      "peritracheal": 6252,
      "giving": 6253,
      "ush": 6254,
      "uses": 6255,
      "fluent": 6256,
      "infiltra": 6257,
      "redo": 6258,
      "hypern": 6259,
      "hyperdensity": 6260,
      "desats": 6261,
      "Stage": 6262,
      "metho": 6263,
      "corac": 6264,
      "pulling": 6265,
      "mets": 6266,
      "hypothyroidism": 6267,
      "approximate": 6268,
      "gors": 6269,
      "facial": 6270,
      "difficile": 6271,
      "continuous": 6272,
      "herni": 6273,
      "avitary": 6274,
      "technologist": 6275,
      "100": 6276,
      "urgent": 6277,
      "urinary": 6278,
      "group": 6279,
      "residua": 6280,
      "Alternatively": 6281,
      "Rest": 6282,
      "Recurrent": 6283,
      "amounts": 6284,
      "Conges": 6285,
      "Confluent": 6286,
      "emesis": 6287,
      "drained": 6288,
      "terial": 6289,
      "folded": 6290,
      "follows": 6291,
      "External": 6292,
      "complaining": 6293,
      "trexate": 6294,
      "CONSO": 6295,
      "CONCER": 6296,
      "LLOW": 6297,
      "nondedicated": 6298,
      "copious": 6299,
      "restriction": 6300,
      "disclo": 6301,
      "osteosarcoma": 6302,
      "Three": 6303,
      "replacements": 6304,
      "PEs": 6305,
      "Trachea": 6306,
      "plateau": 6307,
      "Atrial": 6308,
      "Its": 6309,
      "gastrium": 6310,
      "Progres": 6311,
      "Project": 6312,
      "Partial": 6313,
      "Liver": 6314,
      "elitis": 6315,
      "transplantation": 6316,
      "correctly": 6317,
      "hematocri": 6318,
      "physical": 6319,
      "SBP": 6320,
      "ipated": 6321,
      "ipsilateral": 6322,
      "Hypertension": 6323,
      "Here": 6324,
      "Hepati": 6325,
      "character": 6326,
      "terization": 6327,
      "specifically": 6328,
      "oxygenation": 6329,
      "Pneumoperitone": 6330,
      "biopsi": 6331,
      "marginal": 6332,
      "****": 6333,
      "requency": 6334,
      "Correlate": 6335,
      "paraesophageal": 6336,
      "parapneumonic": 6337,
      "Questionable": 6338,
      "NOT": 6339,
      "NOW": 6340,
      "NSCLC": 6341,
      "faintly": 6342,
      "reports": 6343,
      "TIA": 6344,
      "fecta": 6345,
      "coarsened": 6346,
      "epigastrium": 6347,
      "varices": 6348,
      "desaturations": 6349,
      "Curvilinear": 6350,
      "URS": 6351,
      "tape": 6352,
      "abuts": 6353,
      "drug": 6354,
      "mesh": 6355,
      "ighten": 6356,
      "LIDATION": 6357,
      "palsy": 6358,
      "looks": 6359,
      "determined": 6360,
      "hemicolectomy": 6361,
      "Presence": 6362,
      "supported": 6363,
      "paucity": 6364,
      "intracavitary": 6365,
      "rapidly": 6366,
      "necrotic": 6367,
      "Recently": 6368,
      "takeback": 6369,
      "details": 6370,
      "III": 6371,
      "Platelike": 6372,
      "bronchopleural": 6373,
      "introduced": 6374,
      "tracheobronchomalacia": 6375,
      "MOST": 6376,
      "CHANGE": 6377,
      "jejunostomy": 6378,
      "EGD": 6379,
      "OPACITY": 6380,
      "OPACITIES": 6381,
      "Poorly": 6382,
      "Neutropen": 6383,
      "EVALU": 6384,
      "BILATERAL": 6385,
      "Direct": 6386,
      "FOLLOW": 6387,
      "MTX": 6388,
      "structural": 6389,
      "ruptured": 6390,
      "saturations": 6391,
      "Obli": 6392,
      "cerebral": 6393,
      "Bronchovascular": 6394,
      "Fracture": 6395,
      "Kyphotic": 6396,
      "mvc": 6397,
      "meningitis": 6398,
      "plegia": 6399,
      "destruction": 6400,
      "transp": 6401,
      "hypercarbic": 6402,
      "gallstone": 6403,
      "GNR": 6404,
      "Haziness": 6405,
      "Referring": 6406,
      "UNCHANGED": 6407,
      "anticipated": 6408,
      "successful": 6409,
      "RECOMMENDED": 6410,
      "Azygos": 6411,
      "mediastinoscopy": 6412,
      "reconstruc": 6413,
      "lence": 6414,
      "straighten": 6415,
      "pneuom": 6416,
      "displayed": 6417,
      "PREVIOUSLY": 6418,
      "aspirated": 6419,
      "After": 6420,
      "Ventriculoperitoneal": 6421,
      "patent": 6422,
      "roughly": 6423,
      "verify": 6424,
      "application": 6425,
      "trasound": 6426,
      "cartilage": 6427,
      "desaturating": 6428,
      "osteomyelitis": 6429,
      "Thickening": 6430,
      "Looking": 6431,
      "WEEKS": 6432,
      "somnolence": 6433,
      "Another": 6434,
      "Bedside": 6435,
      "Hostage": 6436,
      "LARGE": 6437,
      "Sudden": 6438,
      "clipping": 6439,
      "nutrition": 6440,
      "inhalation": 6441,
      "returning": 6442,
      "leiomyosarcoma": 6443,
      "tiguous": 6444,
      "enchondroma": 6445,
      "effacement": 6446,
      "congenital": 6447,
      "beginning": 6448,
      "contains": 6449,
      "weighted": 6450,
      "outlining": 6451,
      "management": 6452,
      "methotrexate": 6453,
      "CONSOLIDATION": 6454,
      "hematocrit": 6455,
      "Pneumoperitoneum": 6456,
      "(?": 6457,
      ",.": 6458,
      "4B": 6459,
      "4cm": 6460,
      "5th": 6461,
      "Am": 6462,
      "ACT": 6463,
      "BASE": 6464,
      "CAL": 6465,
      "CUS": 6466,
      "CBD": 6467,
      "Devi": 6468,
      "Fol": 6469,
      "Few": 6470,
      "Fissu": 6471,
      "Fiducial": 6472,
      "GS": 6473,
      "JECT": 6474,
      "KS": 6475,
      "Ka": 6476,
      "L2": 6477,
      "Lor": 6478,
      "Ling": 6479,
      "Lob": 6480,
      "LUM": 6481,
      "Local": 6482,
      "MG": 6483,
      "PIR": 6484,
      "RP": 6485,
      "Ri": 6486,
      "S1": 6487,
      "SLE": 6488,
      "Smaller": 6489,
      "Skin": 6490,
      "SEV": 6491,
      "SMO": 6492,
      "Thou": 6493,
      "TRA": 6494,
      "TKA": 6495,
      "UC": 6496,
      "WS": 6497,
      "WPC": 6498,
      "ZED": 6499,
      "amon": 6500,
      "ave": 6501,
      "apart": 6502,
      "aiting": 6503,
      "bif": 6504,
      "da": 6505,
      "dul": 6506,
      "dax": 6507,
      "domen": 6508,
      "ec": 6509,
      "equ": 6510,
      "equi": 6511,
      "fol": 6512,
      "fung": 6513,
      "gge": 6514,
      "hu": 6515,
      "htx": 6516,
      "ive": 6517,
      "iju": 6518,
      "ken": 6519,
      "kins": 6520,
      "lar": 6521,
      "lab": 6522,
      "licular": 6523,
      "lupus": 6524,
      "mar": 6525,
      "none": 6526,
      "oth": 6527,
      "opp": 6528,
      "ody": 6529,
      "pra": 6530,
      "ply": 6531,
      "pur": 6532,
      "rhe": 6533,
      "run": 6534,
      "rance": 6535,
      "rEF": 6536,
      "sl": 6537,
      "sation": 6538,
      "spect": 6539,
      "swit": 6540,
      "skinfold": 6541,
      "table": 6542,
      "tment": 6543,
      "tam": 6544,
      "tavr": 6545,
      "ual": 6546,
      "vag": 6547,
      "vant": 6548,
      "wks": 6549,
      "x4": 6550,
      "hea": 6551,
      "hemate": 6552,
      "arc": 6553,
      "arietal": 6554,
      "ons": 6555,
      "in___": 6556,
      "inted": 6557,
      "inally": 6558,
      "inves": 6559,
      "inability": 6560,
      "innumerable": 6561,
      "ortive": 6562,
      "ordin": 6563,
      "tear": 6564,
      "ish": 6565,
      "istic": 6566,
      "rever": 6567,
      "reassess": 6568,
      "reque": 6569,
      "readi": 6570,
      "redistributed": 6571,
      "ancre": 6572,
      "thesis": 6573,
      "tig": 6574,
      "tigo": 6575,
      "asymptom": 6576,
      "thri": 6577,
      "sic": 6578,
      "sired": 6579,
      "rig": 6580,
      "atectomy": 6581,
      "omedi": 6582,
      "uni": 6583,
      "unilateral": 6584,
      "unexpected": 6585,
      "unrestrained": 6586,
      "ery": 6587,
      "erate": 6588,
      "often": 6589,
      "ofib": 6590,
      "ofrequency": 6591,
      "umonia": 6592,
      "diure": 6593,
      "diarr": 6594,
      "withbronchosopic": 6595,
      "ghthe": 6596,
      "noon": 6597,
      "nocardia": 6598,
      "neath": 6599,
      "needing": 6600,
      "INR": 6601,
      "INAL": 6602,
      "INFIL": 6603,
      "INFE": 6604,
      "INCREA": 6605,
      "effective": 6606,
      "malposition": 6607,
      "malnutrition": 6608,
      "concurrently": 6609,
      "contiguous": 6610,
      "ultrasound": 6611,
      "ram": 6612,
      "idemia": 6613,
      "entry": 6614,
      "lysis": 6615,
      "bell": 6616,
      "aber": 6617,
      "abolic": 6618,
      "icial": 6619,
      "normalized": 6620,
      "rohn": 6621,
      "phase": 6622,
      "phrenic": 6623,
      "phleg": 6624,
      "respect": 6625,
      "lik": 6626,
      "life": 6627,
      "eviden": 6628,
      "opulmonary": 6629,
      "oparietal": 6630,
      "vix": 6631,
      "parietal": 6632,
      "paralle": 6633,
      "pole": 6634,
      "pointed": 6635,
      "house": 6636,
      "deem": 6637,
      "desired": 6638,
      "exchange": 6639,
      "basis": 6640,
      "fox": 6641,
      "radiofrequency": 6642,
      "interven": 6643,
      "interlobar": 6644,
      "interspaces": 6645,
      "intercostal": 6646,
      "moved": 6647,
      "modal": 6648,
      "vertically": 6649,
      "pressed": 6650,
      "preserved": 6651,
      "compartment": 6652,
      "adju": 6653,
      "overlay": 6654,
      "infer": 6655,
      "presently": 6656,
      "RIB": 6657,
      "preliminary": 6658,
      "kemia": 6659,
      "disrup": 6660,
      "migr": 6661,
      "Cardiomediastinum": 6662,
      "manipul": 6663,
      "uck": 6664,
      "capn": 6665,
      "clon": 6666,
      "clus": 6667,
      "obstruct": 6668,
      "permit": 6669,
      "perfecta": 6670,
      "ragmatic": 6671,
      "midclavicular": 6672,
      "assist": 6673,
      "assisted": 6674,
      "assault": 6675,
      "imum": 6676,
      "imperfecta": 6677,
      "substernal": 6678,
      "substance": 6679,
      "submandibular": 6680,
      "sublu": 6681,
      "hemidiaph": 6682,
      "hemiarthroplasty": 6683,
      "hemiparesis": 6684,
      "Included": 6685,
      "whipple": 6686,
      "ams": 6687,
      "ribcage": 6688,
      "identical": 6689,
      "postion": 6690,
      "maybe": 6691,
      "tracheobronchial": 6692,
      "jection": 6693,
      "endoscopy": 6694,
      "Compressive": 6695,
      "Leftward": 6696,
      "ceral": 6697,
      "bleb": 6698,
      "reflection": 6699,
      "flush": 6700,
      "achnoid": 6701,
      "iseg": 6702,
      "wash": 6703,
      "simul": 6704,
      "trophy": 6705,
      "canal": 6706,
      "visceral": 6707,
      "concerns": 6708,
      "lipidemia": 6709,
      "topic": 6710,
      "IED": 6711,
      "hyperlucent": 6712,
      "hypertrophy": 6713,
      "hyperlipidemia": 6714,
      "ites": 6715,
      "filling": 6716,
      "curves": 6717,
      "curling": 6718,
      "Streak": 6719,
      "cording": 6720,
      "pulse": 6721,
      "metabolic": 6722,
      "hypotensive": 6723,
      "underneath": 6724,
      "detection": 6725,
      "cystic": 6726,
      "Engor": 6727,
      "Internal": 6728,
      "rowave": 6729,
      "settings": 6730,
      "facility": 6731,
      "ponade": 6732,
      "quadra": 6733,
      "coc": 6734,
      "Images": 6735,
      "PDA": 6736,
      "dles": 6737,
      "tebral": 6738,
      "transjugular": 6739,
      "vertebroplasties": 6740,
      "supr": 6741,
      "supra": 6742,
      "rotary": 6743,
      "shortly": 6744,
      "stems": 6745,
      "differentiated": 6746,
      "doe": 6747,
      "layers": 6748,
      "folds": 6749,
      "ILAR": 6750,
      "bip": 6751,
      "bile": 6752,
      "response": 6753,
      "responsible": 6754,
      "Exagger": 6755,
      "picture": 6756,
      "tachypneic": 6757,
      "dominant": 6758,
      "systems": 6759,
      "Change": 6760,
      "resections": 6761,
      "requires": 6762,
      "copal": 6763,
      "ogenesis": 6764,
      "discovered": 6765,
      "osteogenesis": 6766,
      "hyperextended": 6767,
      "telephoneon": 6768,
      "Tracheal": 6769,
      "gradual": 6770,
      "pancreatectomy": 6771,
      "Progressive": 6772,
      "Para": 6773,
      "TBNA": 6774,
      "strokes": 6775,
      "gastroduodenal": 6776,
      "gastrostomy": 6777,
      "Due": 6778,
      "ESS": 6779,
      "ectasia": 6780,
      "etiol": 6781,
      "raised": 6782,
      "approaching": 6783,
      "measure": 6784,
      "convexity": 6785,
      "bulb": 6786,
      "bulge": 6787,
      "acromion": 6788,
      "directly": 6789,
      "characterize": 6790,
      "takes": 6791,
      "bloody": 6792,
      "accessed": 6793,
      "original": 6794,
      "accumul": 6795,
      "POC": 6796,
      "majority": 6797,
      "osteophytic": 6798,
      "parahilar": 6799,
      "DM1": 6800,
      "considerations": 6801,
      "Accoun": 6802,
      "symptomatic": 6803,
      "myelofib": 6804,
      "Displaced": 6805,
      "Monitor": 6806,
      "Coexisting": 6807,
      "POD1": 6808,
      "Hypotension": 6809,
      "DISCUS": 6810,
      "SIG": 6811,
      "points": 6812,
      "infarction": 6813,
      "Signs": 6814,
      "totally": 6815,
      "Whipple": 6816,
      "exertional": 6817,
      "systemic": 6818,
      "Similarly": 6819,
      "prof": 6820,
      "clamping": 6821,
      "infarcts": 6822,
      "costodiaphragmatic": 6823,
      "osteoarthritis": 6824,
      "temporoparietal": 6825,
      "Tubing": 6826,
      "LIGHT": 6827,
      "microwave": 6828,
      "loose": 6829,
      "episodes": 6830,
      "attempts": 6831,
      "document": 6832,
      "CEA": 6833,
      "intracardiac": 6834,
      "asbestosis": 6835,
      "tuberculous": 6836,
      "Leu": 6837,
      "implants": 6838,
      "Hyperexpanded": 6839,
      "aspinal": 6840,
      "elements": 6841,
      "tibia": 6842,
      "bronchopneumonia": 6843,
      "desatting": 6844,
      "sensitivity": 6845,
      "circumstance": 6846,
      "Healing": 6847,
      "localize": 6848,
      "alcoholism": 6849,
      "Abnormal": 6850,
      "Abdomen": 6851,
      "Nondisplaced": 6852,
      "PROJECT": 6853,
      "transfusions": 6854,
      "bilat": 6855,
      "broken": 6856,
      "crowd": 6857,
      "gallbladder": 6858,
      "urosepsis": 6859,
      "motorcycle": 6860,
      "upwards": 6861,
      "emergency": 6862,
      "peribronchovascular": 6863,
      "immunosuppressed": 6864,
      "Septic": 6865,
      "favors": 6866,
      "Dialysis": 6867,
      "FOCAL": 6868,
      "negative": 6869,
      "necessary": 6870,
      "pleurX": 6871,
      "pleurx": 6872,
      "commonly": 6873,
      "Seizures": 6874,
      "DAH": 6875,
      "drip": 6876,
      "driver": 6877,
      "returned": 6878,
      "cerebell": 6879,
      "radiolucencies": 6880,
      "echocardiograph": 6881,
      "obliterated": 6882,
      "CARDIOM": 6883,
      "UTIs": 6884,
      "medicine": 6885,
      "Resolution": 6886,
      "Leads": 6887,
      "BASILAR": 6888,
      "Dilated": 6889,
      "growing": 6890,
      "repeated": 6891,
      "interpretation": 6892,
      "tendinopathy": 6893,
      "deficiency": 6894,
      "occasion": 6895,
      "Desaturations": 6896,
      "established": 6897,
      "HYPER": 6898,
      "htn": 6899,
      "p___WET": 6900,
      "dehiscence": 6901,
      "relapsed": 6902,
      "beneficial": 6903,
      "optimized": 6904,
      "Cirrhosis": 6905,
      "VOLUM": 6906,
      "awaiting": 6907,
      "rugger": 6908,
      "tacro": 6909,
      "institution": 6910,
      "apparatus": 6911,
      "spanning": 6912,
      "impaction": 6913,
      "infiltrative": 6914,
      "Congestive": 6915,
      "discloses": 6916,
      "Progression": 6917,
      "Projecting": 6918,
      "tapered": 6919,
      "transport": 6920,
      "Deviation": 6921,
      "Folfox": 6922,
      "Fissures": 6923,
      "Kaposi": 6924,
      "Lordotic": 6925,
      "Lingular": 6926,
      "Though": 6927,
      "TRACHE": 6928,
      "among": 6929,
      "daxa": 6930,
      "equipment": 6931,
      "follicular": 6932,
      "ggered": 6933,
      "ijuana": 6934,
      "marijuana": 6935,
      "pradaxa": 6936,
      "tamponade": 6937,
      "hematemesis": 6938,
      "investig": 6939,
      "request": 6940,
      "ancreatitis": 6941,
      "asymptomatic": 6942,
      "thrive": 6943,
      "diarrhea": 6944,
      "INFILTR": 6945,
      "INFECT": 6946,
      "evidenced": 6947,
      "deemed": 6948,
      "intervenable": 6949,
      "modality": 6950,
      "adjuvant": 6951,
      "migrated": 6952,
      "obstructing": 6953,
      "sublux": 6954,
      "Exaggerated": 6955,
      "Accounting": 6956,
      "myelofibrosis": 6957,
      "DISCUSSED": 6958,
      "!!": 6959,
      "2n": 6960,
      "2PM": 6961,
      "4pm": 6962,
      "5AM": 6963,
      "7th": 6964,
      "829": 6965,
      "9th": 6966,
      "Ao": 6967,
      "Av": 6968,
      "Ali": 6969,
      "Aband": 6970,
      "BL": 6971,
      "Be": 6972,
      "By": 6973,
      "Ble": 6974,
      "BATION": 6975,
      "BCL": 6976,
      "Best": 6977,
      "Battery": 6978,
      "C2": 6979,
      "Cr": 6980,
      "Core": 6981,
      "Clip": 6982,
      "DC": 6983,
      "Ded": 6984,
      "Dev": 6985,
      "DER": 6986,
      "Dem": 6987,
      "DIF": 6988,
      "EC": 6989,
      "EP": 6990,
      "Em": 6991,
      "Elect": 6992,
      "END": 6993,
      "Epi": 6994,
      "EAR": 6995,
      "Four": 6996,
      "Fir": 6997,
      "Finding": 6998,
      "Found": 6999,
      "From": 7000,
      "Gross": 7001,
      "HAS": 7002,
      "HMA": 7003,
      "HMED": 7004,
      "Kidney": 7005,
      "KUB": 7006,
      "L4": 7007,
      "L5": 7008,
      "La": 7009,
      "Lev": 7010,
      "M0": 7011,
      "Mr": 7012,
      "MIE": 7013,
      "N0": 7014,
      "NL": 7015,
      "Nas": 7016,
      "Narrow": 7017,
      "Oral": 7018,
      "OVE": 7019,
      "OTRACHE": 7020,
      "PJ": 7021,
      "PAP": 7022,
      "Pna": 7023,
      "Pancreatitis": 7024,
      "Rx": 7025,
      "Ring": 7026,
      "Rap": 7027,
      "RHC": 7028,
      "SC": 7029,
      "SU": 7030,
      "She": 7031,
      "Spic": 7032,
      "SCC": 7033,
      "SUR": 7034,
      "SCD": 7035,
      "T5": 7036,
      "T8": 7037,
      "T9": 7038,
      "TL": 7039,
      "TP": 7040,
      "Te": 7041,
      "Tre": 7042,
      "T10": 7043,
      "Valve": 7044,
      "VED": 7045,
      "VHD": 7046,
      "WAS": 7047,
      "ZE": 7048,
      "afebrile": 7049,
      "bing": 7050,
      "bentall": 7051,
      "cp": 7052,
      "che": 7053,
      "cef": 7054,
      "cad": 7055,
      "capping": 7056,
      "covering": 7057,
      "dullness": 7058,
      "eg": 7059,
      "ey": 7060,
      "eas": 7061,
      "eos": 7062,
      "fasc": 7063,
      "gli": 7064,
      "gir": 7065,
      "hin": 7066,
      "how": 7067,
      "hone": 7068,
      "iasis": 7069,
      "ioma": 7070,
      "kal": 7071,
      "ls": 7072,
      "mL": 7073,
      "marrow": 7074,
      "ned": 7075,
      "ool": 7076,
      "oval": 7077,
      "oci": 7078,
      "oesophageal": 7079,
      "oclavicular": 7080,
      "ochondral": 7081,
      "obectomy": 7082,
      "pH": 7083,
      "phe": 7084,
      "pil": 7085,
      "pation": 7086,
      "pop": 7087,
      "page": 7088,
      "pills": 7089,
      "ptogenic": 7090,
      "rd": 7091,
      "rates": 7092,
      "sal": 7093,
      "sch": 7094,
      "tine": 7095,
      "uating": 7096,
      "vably": 7097,
      "wal": 7098,
      "wbc": 7099,
      "xicated": 7100,
      "xrays": 7101,
      "yet": 7102,
      "arising": 7103,
      "arachnoid": 7104,
      "inner": 7105,
      "intestinal": 7106,
      "orific": 7107,
      "isthesis": 7108,
      "reposition": 7109,
      "reevaluate": 7110,
      "recess": 7111,
      "reintubation": 7112,
      "retention": 7113,
      "leman": 7114,
      "edness": 7115,
      "them": 7116,
      "theterization": 7117,
      "tia": 7118,
      "asive": 7119,
      "enal": 7120,
      "encoun": 7121,
      "sitis": 7122,
      "Ther": 7123,
      "acces": 7124,
      "accept": 7125,
      "actually": 7126,
      "according": 7127,
      "ria": 7128,
      "rim": 7129,
      "rigors": 7130,
      "stat": 7131,
      "stair": 7132,
      "story": 7133,
      "stool": 7134,
      "atelact": 7135,
      "unstable": 7136,
      "erve": 7137,
      "notic": 7138,
      "net": 7139,
      "INA": 7140,
      "INS": 7141,
      "olitis": 7142,
      "olisthesis": 7143,
      "concei": 7144,
      "congl": 7145,
      "sions": 7146,
      "ingestion": 7147,
      "semin": 7148,
      "secu": 7149,
      "behin": 7150,
      "ORAC": 7151,
      "axation": 7152,
      "abrup": 7153,
      "angina": 7154,
      "toe": 7155,
      "toid": 7156,
      "totomy": 7157,
      "toimmun": 7158,
      "tosigmoid": 7159,
      "atin": 7160,
      "atro": 7161,
      "ctal": 7162,
      "itted": 7163,
      "itner": 7164,
      "ALY": 7165,
      "RED": 7166,
      "REAT": 7167,
      "liters": 7168,
      "CHRON": 7169,
      "STABLE": 7170,
      "STINAL": 7171,
      "ICA": 7172,
      "ets": 7173,
      "paroscopic": 7174,
      "paraspinal": 7175,
      "calcemia": 7176,
      "pod": 7177,
      "delay": 7178,
      "decr": 7179,
      "sule": 7180,
      "cement": 7181,
      "consolidated": 7182,
      "expand": 7183,
      "sill": 7184,
      "comminuted": 7185,
      "proportion": 7186,
      "product": 7187,
      "EXAMS": 7188,
      "foss": 7189,
      "sizeable": 7190,
      "appen": 7191,
      "intervertebral": 7192,
      "ABOVE": 7193,
      "LEAD": 7194,
      "mod": 7195,
      "vertigo": 7196,
      "aine": 7197,
      "iferative": 7198,
      "plates": 7199,
      "plann": 7200,
      "add": 7201,
      "adhe": 7202,
      "added": 7203,
      "adedness": 7204,
      "volv": 7205,
      "pneumonectomy": 7206,
      "welev": 7207,
      "overhydration": 7208,
      "overtebral": 7209,
      "aging": 7210,
      "RIBS": 7211,
      "prepar": 7212,
      "preexisting": 7213,
      "prefer": 7214,
      "peer": 7215,
      "dissemin": 7216,
      "evalute": 7217,
      "catheterization": 7218,
      "oblast": 7219,
      "lla": 7220,
      "abnormally": 7221,
      "assum": 7222,
      "associ": 7223,
      "thoractotomy": 7224,
      "utamin": 7225,
      "subchondral": 7226,
      "subcentimeter": 7227,
      "subarachnoid": 7228,
      "Intestinal": 7229,
      "thermia": 7230,
      "card": 7231,
      "terminal": 7232,
      "omyolysis": 7233,
      "ambul": 7234,
      "traced": 7235,
      "hyth": 7236,
      "identifi": 7237,
      "pira": 7238,
      "chymal": 7239,
      "remained": 7240,
      "Combin": 7241,
      "postradiation": 7242,
      "postobstructive": 7243,
      "cervic": 7244,
      "tained": 7245,
      "defect": 7246,
      "PICCL": 7247,
      "bypneumothorax": 7248,
      "bowelev": 7249,
      "simply": 7250,
      "example": 7251,
      "used": 7252,
      "orectal": 7253,
      "levoscoliosis": 7254,
      "viscus": 7255,
      "Evalaute": 7256,
      "bronchopulmonary": 7257,
      "colorectal": 7258,
      "tured": 7259,
      "THORAC": 7260,
      "hyperdense": 7261,
      "fecal": 7262,
      "costovertebral": 7263,
      "Angi": 7264,
      "Anchors": 7265,
      "THESE": 7266,
      "apically": 7267,
      "ventriculoperitoneal": 7268,
      "relaxation": 7269,
      "Unfolding": 7270,
      "curved": 7271,
      "Stomach": 7272,
      "placing": 7273,
      "placment": 7274,
      "distort": 7275,
      "cortical": 7276,
      "offic": 7277,
      "hypoglycemia": 7278,
      "hypopharynx": 7279,
      "ventricles": 7280,
      "thickenings": 7281,
      "masslike": 7282,
      "pontine": 7283,
      "portal": 7284,
      "persistant": 7285,
      "aving": 7286,
      "compressed": 7287,
      "anymore": 7288,
      "103": 7289,
      "dramatic": 7290,
      "Allo": 7291,
      "spike": 7292,
      "intoxicated": 7293,
      "ymmetric": 7294,
      "Reaccumulation": 7295,
      "Ossi": 7296,
      "illance": 7297,
      "emp": 7298,
      "draining": 7299,
      "increasingly": 7300,
      "trapping": 7301,
      "dyspl": 7302,
      "lobulated": 7303,
      "intravascular": 7304,
      "intravenous": 7305,
      "intrapulm": 7306,
      "intraventricular": 7307,
      "Subpleural": 7308,
      "extensively": 7309,
      "metastatis": 7310,
      "Decrease": 7311,
      "Degree": 7312,
      "operatively": 7313,
      "ologic": 7314,
      "ological": 7315,
      "ARF": 7316,
      "Extent": 7317,
      "Expected": 7318,
      "Expansile": 7319,
      "involved": 7320,
      "incr": 7321,
      "dominal": 7322,
      "ulent": 7323,
      "notes": 7324,
      "shifting": 7325,
      "FILMS": 7326,
      "Retrac": 7327,
      "Retained": 7328,
      "tiss": 7329,
      "heading": 7330,
      "doboff": 7331,
      "dobutamin": 7332,
      "pericarditis": 7333,
      "occluded": 7334,
      "ASPIR": 7335,
      "pectoralis": 7336,
      "Tracheobronchial": 7337,
      "scans": 7338,
      "exaggerates": 7339,
      "diameters": 7340,
      "arrests": 7341,
      "EMA": 7342,
      "TBBx": 7343,
      "ithiasis": 7344,
      "ACK": 7345,
      "ACS": 7346,
      "ULT": 7347,
      "dropping": 7348,
      "gastrocutaneous": 7349,
      "CPAP": 7350,
      "eloma": 7351,
      "Contact": 7352,
      "carcinoid": 7353,
      "leukemia": 7354,
      "CCY": 7355,
      "goes": 7356,
      "Hemo": 7357,
      "bullet": 7358,
      "entirety": 7359,
      "plavix": 7360,
      "ericardial": 7361,
      "exacerbated": 7362,
      "thirds": 7363,
      "superolateral": 7364,
      "Pneumon": 7365,
      "IVDU": 7366,
      "brium": 7367,
      "kink": 7368,
      "kinking": 7369,
      "istinal": 7370,
      "leftwards": 7371,
      "notice": 7372,
      "pumonary": 7373,
      "accessory": 7374,
      "PLease": 7375,
      "clog": 7376,
      "LOBE": 7377,
      "decomp": 7378,
      "DMII": 7379,
      "grafting": 7380,
      "Accent": 7381,
      "massively": 7382,
      "amio": 7383,
      "bandlike": 7384,
      "smoke": 7385,
      "smooth": 7386,
      "triggered": 7387,
      "allows": 7388,
      "pads": 7389,
      "mistaken": 7390,
      "marginated": 7391,
      "Distal": 7392,
      "Distended": 7393,
      "Incidentally": 7394,
      "LVEF": 7395,
      "indeed": 7396,
      "Intubation": 7397,
      "initiated": 7398,
      "segmentectomy": 7399,
      "PERSI": 7400,
      "whiteout": 7401,
      "artifacts": 7402,
      "yoM": 7403,
      "FTs": 7404,
      "downward": 7405,
      "DOUB": 7406,
      "warrant": 7407,
      "elongation": 7408,
      "centic": 7409,
      "Febrile": 7410,
      "PACU": 7411,
      "craniocaud": 7412,
      "tractable": 7413,
      "Asymmetry": 7414,
      "hemoptx": 7415,
      "hemoperitone": 7416,
      "usually": 7417,
      "edeam": 7418,
      "symmetry": 7419,
      "IASTINAL": 7420,
      "properly": 7421,
      "communication": 7422,
      "separated": 7423,
      "radiodense": 7424,
      "osteochondr": 7425,
      "LIKE": 7426,
      "palpation": 7427,
      "screening": 7428,
      "looking": 7429,
      "planning": 7430,
      "Costochondral": 7431,
      "neoadjuvant": 7432,
      "exploration": 7433,
      "cholangio": 7434,
      "Volumes": 7435,
      "AVF": 7436,
      "Positioning": 7437,
      "equivocally": 7438,
      "sequential": 7439,
      "splenomegaly": 7440,
      "gentleman": 7441,
      "cysts": 7442,
      "MONTH": 7443,
      "variation": 7444,
      "encephalitis": 7445,
      "denoting": 7446,
      "Dextroconvex": 7447,
      "Abdominal": 7448,
      "CARINA": 7449,
      "Nonspecific": 7450,
      "PROX": 7451,
      "STATUS": 7452,
      "EGALY": 7453,
      "bilobectomy": 7454,
      "distorted": 7455,
      "thrombectomy": 7456,
      "anatomy": 7457,
      "capsule": 7458,
      "Pleuritic": 7459,
      "ASTHMA": 7460,
      "aphasia": 7461,
      "regression": 7462,
      "reveals": 7463,
      "collar": 7464,
      "Suggest": 7465,
      "Flattened": 7466,
      "CENTRAL": 7467,
      "REFLECT": 7468,
      "radiolucency": 7469,
      "occupied": 7470,
      "Fractures": 7471,
      "Kyphosis": 7472,
      "maximum": 7473,
      "meningioma": 7474,
      "plegic": 7475,
      "destructive": 7476,
      "hypercarbia": 7477,
      "CARDIAC": 7478,
      "gallstones": 7479,
      "Bullous": 7480,
      "roliferative": 7481,
      "svc": 7482,
      "svg": 7483,
      "conversation": 7484,
      "thrombosis": 7485,
      "Collap": 7486,
      "Emphysematous": 7487,
      "crescentic": 7488,
      "globally": 7489,
      "oropharynx": 7490,
      "oropharyngeal": 7491,
      "mammogram": 7492,
      "Osteopen": 7493,
      "myocardial": 7494,
      "Potential": 7495,
      "Potentially": 7496,
      "hepatocellular": 7497,
      "DLBCL": 7498,
      "Diabe": 7499,
      "muscle": 7500,
      "invasive": 7501,
      "orthopnea": 7502,
      "aseptic": 7503,
      "levoconvex": 7504,
      "surveillance": 7505,
      "rhabdomyolysis": 7506,
      "pnuemonia": 7507,
      "tachypnic": 7508,
      "restrictive": 7509,
      "cryptogenic": 7510,
      "Advancement": 7511,
      "safely": 7512,
      "favoring": 7513,
      "Lymphoma": 7514,
      "Drainage": 7515,
      "Evolution": 7516,
      "Myeloma": 7517,
      "OBTA": 7518,
      "Pulled": 7519,
      "SHORT": 7520,
      "gamma": 7521,
      "slowly": 7522,
      "ttled": 7523,
      "uterine": 7524,
      "enhanced": 7525,
      "contents": 7526,
      "pneumatosis": 7527,
      "angiogram": 7528,
      "virtually": 7529,
      "paracentesis": 7530,
      "degeneration": 7531,
      "excludes": 7532,
      "manubrium": 7533,
      "coracoclavicular": 7534,
      "Hepatitis": 7535,
      "biopsies": 7536,
      "Neutropenic": 7537,
      "EVALUATE": 7538,
      "FOLLOWUP": 7539,
      "Oblique": 7540,
      "pneuomothorax": 7541,
      "ACTIVE": 7542,
      "MGUS": 7543,
      "SMOKER": 7544,
      "fungal": 7545,
      "opposed": 7546,
      "purulent": 7547,
      "ordinary": 7548,
      "readily": 7549,
      "diuretic": 7550,
      "ghtheadedness": 7551,
      "likley": 7552,
      "inferolateral": 7553,
      "disruption": 7554,
      "manipulation": 7555,
      "clonic": 7556,
      "permits": 7557,
      "hemidiaphram": 7558,
      "simulates": 7559,
      "Engorgement": 7560,
      "Leukocytosis": 7561,
      "cerebellar": 7562,
      "echocardiography": 7563,
      "CARDIOMEGALY": 7564,
      "VOLUME": 7565,
      "2nd": 7566,
      "Available": 7567,
      "Align": 7568,
      "Abandoned": 7569,
      "CoreValve": 7570,
      "Dedicated": 7571,
      "Dementia": 7572,
      "ENDOTRACHE": 7573,
      "First": 7574,
      "Grossly": 7575,
      "Laparoscopic": 7576,
      "Levoscoliosis": 7577,
      "Narrowing": 7578,
      "Rapid": 7579,
      "Spiculated": 7580,
      "SURGER": 7581,
      "eosin": 7582,
      "glioblast": 7583,
      "honey": 7584,
      "walled": 7585,
      "orifice": 7586,
      "encountered": 7587,
      "accessible": 7588,
      "acceptable": 7589,
      "stairs": 7590,
      "conceivably": 7591,
      "conglom": 7592,
      "behind": 7593,
      "abrupt": 7594,
      "toimmune": 7595,
      "itnerval": 7596,
      "CHRONIC": 7597,
      "products": 7598,
      "fossa": 7599,
      "LEADS": 7600,
      "planned": 7601,
      "disseminated": 7602,
      "association": 7603,
      "Combination": 7604,
      "cervicothoracic": 7605,
      "bowelevident": 7606,
      "THORACIC": 7607,
      "dobutamine": 7608,
      "ASPIRATION": 7609,
      "PERSIST": 7610,
      "craniocaudal": 7611,
      "hemoperitoneum": 7612,
      "osteochondromatosis": 7613,
      "ENDOTRACHEAL": 7614,
      "glioblastoma": 7615,
      "%)": 7616,
      ",?": 7617,
      "-)": 7618,
      "2x": 7619,
      "2cm": 7620,
      "5L": 7621,
      "741": 7622,
      "725": 7623,
      "8th": 7624,
      "8AM": 7625,
      "8am": 7626,
      "8pm": 7627,
      "835": 7628,
      "80s": 7629,
      "?-": 7630,
      "Are": 7631,
      "AIN": 7632,
      "ACH": 7633,
      "Ami": 7634,
      "Apic": 7635,
      "AFT": 7636,
      "Atypical": 7637,
      "BM": 7638,
      "Bre": 7639,
      "BLE": 7640,
      "BSO": 7641,
      "BMS": 7642,
      "BOTH": 7643,
      "CLE": 7644,
      "CVC": 7645,
      "CONT": 7646,
      "CUR": 7647,
      "Crohn": 7648,
      "CIED": 7649,
      "Dra": 7650,
      "Det": 7651,
      "Dise": 7652,
      "Each": 7653,
      "Epicardi": 7654,
      "Epid": 7655,
      "FX": 7656,
      "Fx": 7657,
      "Flowing": 7658,
      "FICU": 7659,
      "FLU": 7660,
      "Fix": 7661,
      "GJ": 7662,
      "GM": 7663,
      "Gen": 7664,
      "GPC": 7665,
      "Gastro": 7666,
      "GVHD": 7667,
      "HL": 7668,
      "HR": 7669,
      "Her": 7670,
      "Had": 7671,
      "Hick": 7672,
      "IG": 7673,
      "Ig": 7674,
      "IAL": 7675,
      "IDE": 7676,
      "IMAL": 7677,
      "LM": 7678,
      "LR": 7679,
      "Line": 7680,
      "LUE": 7681,
      "LIJ": 7682,
      "Lack": 7683,
      "MD": 7684,
      "MM": 7685,
      "MAC": 7686,
      "Mel": 7687,
      "MVP": 7688,
      "Morg": 7689,
      "NK": 7690,
      "Na": 7691,
      "OD": 7692,
      "Oval": 7693,
      "Pa": 7694,
      "Part": 7695,
      "PIP": 7696,
      "PFTs": 7697,
      "Rh": 7698,
      "Rt": 7699,
      "Round": 7700,
      "Rising": 7701,
      "RFA": 7702,
      "Renal": 7703,
      "SIL": 7704,
      "Syn": 7705,
      "SLIGHT": 7706,
      "Symmetric": 7707,
      "Ty": 7708,
      "TPA": 7709,
      "Tif": 7710,
      "THI": 7711,
      "TREAT": 7712,
      "UND": 7713,
      "UET": 7714,
      "VF": 7715,
      "Ve": 7716,
      "Vi": 7717,
      "Var": 7718,
      "VRE": 7719,
      "VIS": 7720,
      "VENT": 7721,
      "WOR": 7722,
      "What": 7723,
      "Wide": 7724,
      "ait": 7725,
      "ake": 7726,
      "amid": 7727,
      "apost": 7728,
      "bal": 7729,
      "bor": 7730,
      "bid": 7731,
      "buc": 7732,
      "biseg": 7733,
      "cv": 7734,
      "cand": 7735,
      "cob": 7736,
      "case": 7737,
      "cvic": 7738,
      "cris": 7739,
      "cision": 7740,
      "ches": 7741,
      "dm": 7742,
      "dark": 7743,
      "ee": 7744,
      "elimin": 7745,
      "fth": 7746,
      "fro": 7747,
      "finally": 7748,
      "gment": 7749,
      "got": 7750,
      "hid": 7751,
      "hpo": 7752,
      "happen": 7753,
      "ias": 7754,
      "iate": 7755,
      "ivary": 7756,
      "iatro": 7757,
      "know": 7758,
      "lv": 7759,
      "lac": 7760,
      "labs": 7761,
      "lasix": 7762,
      "ml": 7763,
      "mented": 7764,
      "mnt": 7765,
      "nic": 7766,
      "noman": 7767,
      "nomin": 7768,
      "othe": 7769,
      "oag": 7770,
      "oaf": 7771,
      "opport": 7772,
      "odense": 7773,
      "odic": 7774,
      "ps": 7775,
      "pthorax": 7776,
      "pex": 7777,
      "porta": 7778,
      "prac": 7779,
      "pounds": 7780,
      "peform": 7781,
      "poplastic": 7782,
      "sli": 7783,
      "scop": 7784,
      "tou": 7785,
      "tort": 7786,
      "tren": 7787,
      "tach": 7788,
      "twel": 7789,
      "uity": 7790,
      "uber": 7791,
      "vo": 7792,
      "van": 7793,
      "vac": 7794,
      "vide": 7795,
      "vasc": 7796,
      "ws": 7797,
      "went": 7798,
      "wounds": 7799,
      "x___": 7800,
      "xim": 7801,
      "x24": 7802,
      "xiet": 7803,
      "ylo": 7804,
      "heter": 7805,
      "hepar": 7806,
      "arte": 7807,
      "arted": 7808,
      "ario": 7809,
      "albe": 7810,
      "altern": 7811,
      "alamic": 7812,
      "inte": 7813,
      "inity": 7814,
      "incomplete": 7815,
      "insul": 7816,
      "intention": 7817,
      "injection": 7818,
      "intractable": 7819,
      "innomin": 7820,
      "orex": 7821,
      "orption": 7822,
      "oresis": 7823,
      "tellation": 7824,
      "isis": 7825,
      "ised": 7826,
      "iscus": 7827,
      "real": 7828,
      "rene": 7829,
      "renew": 7830,
      "reidentified": 7831,
      "redemonstrate": 7832,
      "redemonstrates": 7833,
      "reur": 7834,
      "recheck": 7835,
      "reaccum": 7836,
      "retained": 7837,
      "lec": 7838,
      "leaving": 7839,
      "anal": 7840,
      "anst": 7841,
      "anox": 7842,
      "anxiet": 7843,
      "tile": 7844,
      "tiate": 7845,
      "ascertain": 7846,
      "astia": 7847,
      "thalamic": 7848,
      "enough": 7849,
      "enchymal": 7850,
      "sient": 7851,
      "acterial": 7852,
      "acuity": 7853,
      "rilobular": 7854,
      "stric": 7855,
      "static": 7856,
      "staph": 7857,
      "started": 7858,
      "ouet": 7859,
      "atelec": 7860,
      "omet": 7861,
      "omatous": 7862,
      "omitted": 7863,
      "und": 7864,
      "unk": 7865,
      "uncontrolled": 7866,
      "undetermined": 7867,
      "unistic": 7868,
      "undifferentiated": 7869,
      "unusually": 7870,
      "unequivocally": 7871,
      "unintention": 7872,
      "ralum": 7873,
      "umatic": 7874,
      "division": 7875,
      "ese": 7876,
      "esrd": 7877,
      "novi": 7878,
      "ilhouet": 7879,
      "neu": 7880,
      "necom": 7881,
      "neur": 7882,
      "___f": 7883,
      "INFORM": 7884,
      "oli": 7885,
      "olation": 7886,
      "chane": 7887,
      "condy": 7888,
      "confused": 7889,
      "uly": 7890,
      "ulous": 7891,
      "uline": 7892,
      "ulopathy": 7893,
      "plex": 7894,
      "sew": 7895,
      "sept": 7896,
      "sequent": 7897,
      "selected": 7898,
      "entrance": 7899,
      "OROG": 7900,
      "turing": 7901,
      "axia": 7902,
      "abine": 7903,
      "terval": 7904,
      "maint": 7905,
      "matically": 7906,
      "toge": 7907,
      "edian": 7908,
      "rod": 7909,
      "roin": 7910,
      "robor": 7911,
      "Not": 7912,
      "Noted": 7913,
      "phritis": 7914,
      "pharyngeal": 7915,
      "ata": 7916,
      "at___": 7917,
      "ataxia": 7918,
      "resis": 7919,
      "cardic": 7920,
      "itous": 7921,
      "ALL": 7922,
      "ALIF": 7923,
      "ALLOW": 7924,
      "RESO": 7925,
      "RENT": 7926,
      "REMA": 7927,
      "RECUR": 7928,
      "pportive": 7929,
      "lith": 7930,
      "lioma": 7931,
      "lightheadedness": 7932,
      "STOM": 7933,
      "eved": 7934,
      "ops": 7935,
      "ophed": 7936,
      "vex": 7937,
      "vered": 7938,
      "veolar": 7939,
      "ICATION": 7940,
      "constellation": 7941,
      "paralysis": 7942,
      "parasep": 7943,
      "pock": 7944,
      "del": 7945,
      "deposition": 7946,
      "degre": 7947,
      "depressed": 7948,
      "decompressed": 7949,
      "suite": 7950,
      "APML": 7951,
      "APPROX": 7952,
      "opacites": 7953,
      "ext": 7954,
      "exer": 7955,
      "excision": 7956,
      "AMI": 7957,
      "comment": 7958,
      "combing": 7959,
      "contained": 7960,
      "proc": 7961,
      "ogt": 7962,
      "EXPOS": 7963,
      "foam": 7964,
      "food": 7965,
      "ews": 7966,
      "focally": 7967,
      "radiaph": 7968,
      "interbody": 7969,
      "intersection": 7970,
      "interlobular": 7971,
      "LEAST": 7972,
      "cultures": 7973,
      "viewed": 7974,
      "move": 7975,
      "argu": 7976,
      "strand": 7977,
      "tening": 7978,
      "tented": 7979,
      "ify": 7980,
      "adyn": 7981,
      "lowermost": 7982,
      "trunk": 7983,
      "truly": 7984,
      "CO2": 7985,
      "COURS": 7986,
      "overly": 7987,
      "oversew": 7988,
      "intervally": 7989,
      "infx": 7990,
      "agni": 7991,
      "agulopathy": 7992,
      "COMPRES": 7993,
      "COMMENT": 7994,
      "positi": 7995,
      "heartware": 7996,
      "keto": 7997,
      "peated": 7998,
      "pection": 7999,
      "peak": 8000,
      "disappeared": 8001,
      "disconnected": 8002,
      "outlet": 8003,
      "many": 8004,
      "managed": 8005,
      "uction": 8006,
      "ucent": 8007,
      "tipplease": 8008,
      "oblong": 8009,
      "perg": 8010,
      "perine": 8011,
      "spin": 8012,
      "spans": 8013,
      "spur": 8014,
      "spines": 8015,
      "diaphoresis": 8016,
      "duce": 8017,
      "centrilobular": 8018,
      "midtrachea": 8019,
      "assumed": 8020,
      "ime": 8021,
      "ctions": 8022,
      "hemithoraces": 8023,
      "proven": 8024,
      "Initi": 8025,
      "Incompletely": 8026,
      "cari": 8027,
      "LATE": 8028,
      "amedian": 8029,
      "intake": 8030,
      "posted": 8031,
      "cule": 8032,
      "pig": 8033,
      "gel": 8034,
      "geograph": 8035,
      "trached": 8036,
      "CTX": 8037,
      "endarte": 8038,
      "Component": 8039,
      "Comminuted": 8040,
      "fracturing": 8041,
      "posture": 8042,
      "ophil": 8043,
      "sotomy": 8044,
      "infected": 8045,
      "obtaining": 8046,
      "izing": 8047,
      "izoaf": 8048,
      "flare": 8049,
      "assessing": 8050,
      "worthy": 8051,
      "onephritis": 8052,
      "periodic": 8053,
      "Ascending": 8054,
      "gias": 8055,
      "tropon": 8056,
      "levophed": 8057,
      "fluor": 8058,
      "sternoman": 8059,
      "visit": 8060,
      "visib": 8061,
      "centralized": 8062,
      "removing": 8063,
      "packing": 8064,
      "colog": 8065,
      "redund": 8066,
      "THC": 8067,
      "THAN": 8068,
      "hypertensive": 8069,
      "hyperglycemia": 8070,
      "hypercalcemia": 8071,
      "Anchor": 8072,
      "Sutures": 8073,
      "Supportive": 8074,
      "dyn": 8075,
      "multilobar": 8076,
      "relating": 8077,
      "Unable": 8078,
      "desating": 8079,
      "Stand": 8080,
      "Staged": 8081,
      "TEN": 8082,
      "TENT": 8083,
      "TERIOR": 8084,
      "NIFIC": 8085,
      "corrobor": 8086,
      "ADE": 8087,
      "hypothermia": 8088,
      "cylin": 8089,
      "resolve": 8090,
      "dules": 8091,
      "icking": 8092,
      "former": 8093,
      "Interposition": 8094,
      "elodyspl": 8095,
      "break": 8096,
      "loading": 8097,
      "quadrants": 8098,
      "rectangular": 8099,
      "code": 8100,
      "coales": 8101,
      "APHRA": 8102,
      "dramatically": 8103,
      "PTBD": 8104,
      "gtt": 8105,
      "lymphatic": 8106,
      "lymphaden": 8107,
      "lymphomatous": 8108,
      "Surgery": 8109,
      "barrel": 8110,
      "urine": 8111,
      "urgency": 8112,
      "translucency": 8113,
      "translucent": 8114,
      "Assessing": 8115,
      "vicinity": 8116,
      "Along": 8117,
      "Alveolar": 8118,
      "PTXPlease": 8119,
      "hod": 8120,
      "progressing": 8121,
      "hemodyn": 8122,
      "proximally": 8123,
      "fibronodular": 8124,
      "Repeated": 8125,
      "illator": 8126,
      "Preliminary": 8127,
      "Confusion": 8128,
      "Convex": 8129,
      "emoral": 8130,
      "residuals": 8131,
      "travel": 8132,
      "trapped": 8133,
      "dyspneic": 8134,
      "intrapleural": 8135,
      "cardiopericardial": 8136,
      "morbid": 8137,
      "1230pm": 8138,
      "ILL": 8139,
      "Radiation": 8140,
      "Radiodense": 8141,
      "responsiveness": 8142,
      "cirrh": 8143,
      "Examination": 8144,
      "Exclusion": 8145,
      "Percutaneous": 8146,
      "Permanent": 8147,
      "loculations": 8148,
      "incision": 8149,
      "penumonia": 8150,
      "sedation": 8151,
      "tachycardic": 8152,
      "Persist": 8153,
      "Persisting": 8154,
      "synovi": 8155,
      "nonproductive": 8156,
      "nonvisualization": 8157,
      "disclose": 8158,
      "ankle": 8159,
      "pericardiocentesis": 8160,
      "whereas": 8161,
      "caustic": 8162,
      "gram": 8163,
      "DECREA": 8164,
      "frankly": 8165,
      "epime": 8166,
      "inspirational": 8167,
      "Proximal": 8168,
      "cephalus": 8169,
      "Parenchymal": 8170,
      "looping": 8171,
      "Midthoracic": 8172,
      "VATs": 8173,
      "20mL": 8174,
      "azygoesophageal": 8175,
      "dropped": 8176,
      "gastrojejunostomy": 8177,
      "CVAs": 8178,
      "falling": 8179,
      "ellip": 8180,
      "ISS": 8181,
      "brachial": 8182,
      "allogenic": 8183,
      "prostheses": 8184,
      "lerated": 8185,
      "inspection": 8186,
      "ceived": 8187,
      "physiology": 8188,
      "bacterial": 8189,
      "hydrocephalus": 8190,
      "Tran": 8191,
      "resulted": 8192,
      "Hypertensive": 8193,
      "Hemi": 8194,
      "Heav": 8195,
      "Shunt": 8196,
      "retractile": 8197,
      "INED": 8198,
      "presump": 8199,
      "absent": 8200,
      "myelop": 8201,
      "mycob": 8202,
      "bronchiectatic": 8203,
      "Coughing": 8204,
      "biopro": 8205,
      "acromiohumeral": 8206,
      "artific": 8207,
      "articulation": 8208,
      "Opacifications": 8209,
      "PLV": 8210,
      "Worsened": 8211,
      "needle": 8212,
      "22am": 8213,
      "BELOW": 8214,
      "boluses": 8215,
      "paraplegia": 8216,
      "parapharyngeal": 8217,
      "depending": 8218,
      "-->": 8219,
      "DM2": 8220,
      "Apparently": 8221,
      "NOTE": 8222,
      "NOUS": 8223,
      "ideal": 8224,
      "allowances": 8225,
      "nephro": 8226,
      "nephrol": 8227,
      "Biventricular": 8228,
      "BiPAP": 8229,
      "dependence": 8230,
      "Pericardial": 8231,
      "Underpenetrated": 8232,
      "Fevers": 8233,
      "explains": 8234,
      "TUBATION": 8235,
      "initiation": 8236,
      "Whether": 8237,
      "annuloplasty": 8238,
      "technically": 8239,
      "functioning": 8240,
      "POD2": 8241,
      "Hypox": 8242,
      "Hypoxic": 8243,
      "epicardium": 8244,
      "LYING": 8245,
      "SpO2": 8246,
      "recorder": 8247,
      "pyloroplasty": 8248,
      "meniscus": 8249,
      "taper": 8250,
      "laparoscopy": 8251,
      "originally": 8252,
      "EVAR": 8253,
      "HFrEF": 8254,
      "decort": 8255,
      "mesent": 8256,
      "mesothe": 8257,
      "IFICATION": 8258,
      "medistinal": 8259,
      "demand": 8260,
      "demarc": 8261,
      "dental": 8262,
      "admissions": 8263,
      "Consolidations": 8264,
      "MAZE": 8265,
      "micronodular": 8266,
      "occurrence": 8267,
      "Present": 8268,
      "detailed": 8269,
      "nasal": 8270,
      "Nodularity": 8271,
      "differently": 8272,
      "Observe": 8273,
      "pauses": 8274,
      "reached": 8275,
      "ATELY": 8276,
      "mechanically": 8277,
      "immunosu": 8278,
      "ventilating": 8279,
      "flexion": 8280,
      "Double": 8281,
      "recurring": 8282,
      "necrosis": 8283,
      "delivered": 8284,
      "brainstem": 8285,
      "Weight": 8286,
      "ubrial": 8287,
      "intermittently": 8288,
      "IMPRO": 8289,
      "IMATELY": 8290,
      "tibial": 8291,
      "Inferior": 8292,
      "Infectious": 8293,
      "temps": 8294,
      "widely": 8295,
      "introducer": 8296,
      "cordancy": 8297,
      "PRESENT": 8298,
      "ENING": 8299,
      "ENLARGE": 8300,
      "MODER": 8301,
      "CHANGES": 8302,
      "jejunal": 8303,
      "localizes": 8304,
      "Appearances": 8305,
      "Deformities": 8306,
      "PROC": 8307,
      "TRALI": 8308,
      "WEVER": 8309,
      "WELL": 8310,
      "umatoid": 8311,
      "ulcers": 8312,
      "recommendations": 8313,
      "patching": 8314,
      "ANTERIOR": 8315,
      "DIAPHRA": 8316,
      "HOLE": 8317,
      "HOUET": 8318,
      "HOWEVER": 8319,
      "OPACIFICATION": 8320,
      "bilia": 8321,
      "save": 8322,
      "recovery": 8323,
      "recovering": 8324,
      "rectosigmoid": 8325,
      "Intraparenchymal": 8326,
      "temperatures": 8327,
      "valvuloplasty": 8328,
      "BIBASILAR": 8329,
      "SEEN": 8330,
      "mandible": 8331,
      "captured": 8332,
      "improvemnt": 8333,
      "DESx2": 8334,
      "ASTRIC": 8335,
      "PHONE": 8336,
      "PHYS": 8337,
      "autoimmune": 8338,
      "revealed": 8339,
      "antero": 8340,
      "Thanks": 8341,
      "Lesser": 8342,
      "gangrene": 8343,
      "weaned": 8344,
      "ossific": 8345,
      "scheduled": 8346,
      "contributes": 8347,
      "Effusions": 8348,
      "Bronchi": 8349,
      "TVr": 8350,
      "swallowing": 8351,
      "induction": 8352,
      "cauda": 8353,
      "caudally": 8354,
      "scenario": 8355,
      "obliterates": 8356,
      "Bandlike": 8357,
      "Bullet": 8358,
      "FAIL": 8359,
      "SSS": 8360,
      "medication": 8361,
      "anticoag": 8362,
      "effus": 8363,
      "successfully": 8364,
      "clarified": 8365,
      "clarify": 8366,
      "thrombus": 8367,
      "RECOMMENDATION": 8368,
      "HEE": 8369,
      "RALES": 8370,
      "VENOUS": 8371,
      "globuline": 8372,
      "confines": 8373,
      "myoclonic": 8374,
      "reasonably": 8375,
      "POSITIONING": 8376,
      "organizing": 8377,
      "hepatopulmonary": 8378,
      "establish": 8379,
      "Diaph": 8380,
      "MEDIASTINAL": 8381,
      "RNY": 8382,
      "RICLE": 8383,
      "brought": 8384,
      "inclusions": 8385,
      "throax": 8386,
      "throat": 8387,
      "match": 8388,
      "RECENTLY": 8389,
      "quantity": 8390,
      "survey": 8391,
      "rhabdo": 8392,
      "tachypnia": 8393,
      "restricted": 8394,
      "compromise": 8395,
      "compromised": 8396,
      "speaking": 8397,
      "Arison": 8398,
      "Outside": 8399,
      "QUESTION": 8400,
      "Smoker": 8401,
      "branch": 8402,
      "gynecom": 8403,
      "hairpin": 8404,
      "resected": 8405,
      "sickle": 8406,
      "ALIZED": 8407,
      "radiologist": 8408,
      "mixed": 8409,
      "hypernatremia": 8410,
      "hyperncapn": 8411,
      "herniation": 8412,
      "CONCERN": 8413,
      "CONCERNING": 8414,
      "reconstruction": 8415,
      "reconstructive": 8416,
      "Amount": 8417,
      "Lobulation": 8418,
      "SEVERE": 8419,
      "bifemoral": 8420,
      "dull": 8421,
      "equina": 8422,
      "huge": 8423,
      "labored": 8424,
      "rheumatoid": 8425,
      "running": 8426,
      "spectrum": 8427,
      "switched": 8428,
      "rigid": 8429,
      "omedial": 8430,
      "INCREASED": 8431,
      "effectively": 8432,
      "phlegm": 8433,
      "parallel": 8434,
      "compartments": 8435,
      "cluster": 8436,
      "cocaine": 8437,
      "bipolar": 8438,
      "Paraesophageal": 8439,
      "accumulating": 8440,
      "SIGNIFIC": 8441,
      "profound": 8442,
      "occasional": 8443,
      "investigated": 8444,
      "INFILTRATE": 8445,
      "INFECTION": 8446,
      "subluxation": 8447,
      "Bleeding": 8448,
      "Develop": 8449,
      "DIFF": 8450,
      "Epigastric": 8451,
      "EARLY": 8452,
      "Nasoenteric": 8453,
      "cefepime": 8454,
      "eye": 8455,
      "girdles": 8456,
      "salivary": 8457,
      "schizoaf": 8458,
      "noticed": 8459,
      "delayed": 8460,
      "adhesions": 8461,
      "volvulus": 8462,
      "preparing": 8463,
      "distorts": 8464,
      "officer": 8465,
      "Retraction": 8466,
      "noticeable": 8467,
      "warrants": 8468,
      "LIKELY": 8469,
      "Collapse": 8470,
      "Osteopenia": 8471,
      "Diabetes": 8472,
      "OBTAINED": 8473,
      "diuretics": 8474,
      "Alignment": 8475,
      "SURGERY": 8476,
      "eosinophil": 8477,
      "honeycombing": 8478,
      "conglomerate": 8479,
      "PERSISTENT": 8480,
      "Amiodarone": 8481,
      "Apices": 8482,
      "AFTER": 8483,
      "Breast": 8484,
      "CLEAR": 8485,
      "Drains": 8486,
      "Detailed": 8487,
      "Disease": 8488,
      "Epicardial": 8489,
      "Epidural": 8490,
      "FLUID": 8491,
      "Fixation": 8492,
      "Gastrostomy": 8493,
      "Hickman": 8494,
      "LRRT": 8495,
      "Melanoma": 8496,
      "Morgagni": 8497,
      "SILHOUET": 8498,
      "Type": 8499,
      "Tiff": 8500,
      "Veil": 8501,
      "Views": 8502,
      "VENTRICLE": 8503,
      "balance": 8504,
      "buccal": 8505,
      "bisegmentectomy": 8506,
      "cvl": 8507,
      "candid": 8508,
      "cvicu": 8509,
      "crisis": 8510,
      "eliminated": 8511,
      "hidden": 8512,
      "hpoxia": 8513,
      "iatrogenic": 8514,
      "lvad": 8515,
      "opportunistic": 8516,
      "pexy": 8517,
      "practically": 8518,
      "scopy": 8519,
      "trending": 8520,
      "twelfth": 8521,
      "uberant": 8522,
      "video": 8523,
      "x24h": 8524,
      "heparin": 8525,
      "albeit": 8526,
      "insulin": 8527,
      "innominate": 8528,
      "orexia": 8529,
      "renewed": 8530,
      "reurrent": 8531,
      "anoxic": 8532,
      "anxiety": 8533,
      "ouette": 8534,
      "unintentional": 8535,
      "raluminal": 8536,
      "INFORMATION": 8537,
      "septa": 8538,
      "OROGASTRIC": 8539,
      "maintained": 8540,
      "together": 8541,
      "REMAINS": 8542,
      "RECURRENT": 8543,
      "STOMACH": 8544,
      "paraseptal": 8545,
      "degrees": 8546,
      "APPROXIMATELY": 8547,
      "EXPOSURE": 8548,
      "radiaphragmatic": 8549,
      "adynamic": 8550,
      "COURSES": 8551,
      "endarterectomy": 8552,
      "troponin": 8553,
      "visibility": 8554,
      "elodysplastic": 8555,
      "synovial": 8556,
      "mycobacterial": 8557,
      "mesothelioma": 8558,
      "demarcated": 8559,
      "MODERATE": 8560,
      "DIAPHRAGM": 8561,
      "globulinemia": 8562,
      "gynecomastia": 8563,
      "hyperncapnia": 8564,
      "SIGNIFICANT": 8565,
      "schizoaffective": 8566,
      "SILHOUETTE": 8567,
      "\".": 8568,
      "(+": 8569,
      "(>": 8570,
      "(-)": 8571,
      ");": 8572,
      "+/-": 8573,
      "-****": 8574,
      ".*": 8575,
      ".:": 8576,
      ".).": 8577,
      "1A": 8578,
      "1PM": 8579,
      "3pm": 8580,
      "4am": 8581,
      "4PM": 8582,
      "400": 8583,
      "435": 8584,
      "60": 8585,
      "6cm": 8586,
      "6mm": 8587,
      "6pm": 8588,
      "601": 8589,
      "604": 8590,
      "7AM": 8591,
      "7am": 8592,
      "724": 8593,
      "734": 8594,
      "726": 8595,
      "811": 8596,
      "827": 8597,
      "848": 8598,
      "833": 8599,
      "842": 8600,
      "849": 8601,
      "838": 8602,
      "9mm": 8603,
      "914": 8604,
      "909": 8605,
      "AG": 8606,
      "AO": 8607,
      "Ane": 8608,
      "AORT": 8609,
      "AREA": 8610,
      "Ame": 8611,
      "AIL": 8612,
      "Amorph": 8613,
      "Aorto": 8614,
      "AGO": 8615,
      "BV": 8616,
      "Bl": 8617,
      "BINATION": 8618,
      "Brac": 8619,
      "BKA": 8620,
      "Bentall": 8621,
      "Car": 8622,
      "Chy": 8623,
      "Call": 8624,
      "CUM": 8625,
      "Colon": 8626,
      "CRIB": 8627,
      "DG": 8628,
      "DHI": 8629,
      "DRA": 8630,
      "DDM": 8631,
      "DCM": 8632,
      "DOM": 8633,
      "DLI": 8634,
      "Dashboard": 8635,
      "DYS": 8636,
      "Ep": 8637,
      "Eti": 8638,
      "ERI": 8639,
      "Ease": 8640,
      "FB": 8641,
      "FN": 8642,
      "Fat": 8643,
      "Fort": 8644,
      "Fine": 8645,
      "Frequent": 8646,
      "FAST": 8647,
      "FNA": 8648,
      "Finally": 8649,
      "FDG": 8650,
      "Gre": 8651,
      "Ground": 8652,
      "GDA": 8653,
      "HA": 8654,
      "Hor": 8655,
      "Hum": 8656,
      "Hct": 8657,
      "HCT": 8658,
      "HER": 8659,
      "Hoff": 8660,
      "Hem": 8661,
      "Hip": 8662,
      "HCM": 8663,
      "HAV": 8664,
      "HSV": 8665,
      "Homogeneous": 8666,
      "HBV": 8667,
      "Ile": 8668,
      "JVP": 8669,
      "Jhu": 8670,
      "Lt": 8671,
      "LON": 8672,
      "LOG": 8673,
      "Loc": 8674,
      "LOS": 8675,
      "Lcx": 8676,
      "Liber": 8677,
      "LGIB": 8678,
      "Lucencies": 8679,
      "Lupus": 8680,
      "MP": 8681,
      "Mal": 8682,
      "Med": 8683,
      "Main": 8684,
      "Mag": 8685,
      "Mass": 8686,
      "MER": 8687,
      "MAR": 8688,
      "MUL": 8689,
      "Mrs": 8690,
      "NP": 8691,
      "NAL": 8692,
      "Ngt": 8693,
      "Neither": 8694,
      "OI": 8695,
      "OP": 8696,
      "OCC": 8697,
      "Ovoid": 8698,
      "OURS": 8699,
      "PB": 8700,
      "PR": 8701,
      "Pat": 8702,
      "Porta": 8703,
      "PPICC": 8704,
      "PUM": 8705,
      "Pla": 8706,
      "PO2": 8707,
      "PUD": 8708,
      "Ptx": 8709,
      "PIG": 8710,
      "RH": 8711,
      "RM": 8712,
      "RS": 8713,
      "Ro": 8714,
      "Rob": 8715,
      "RING": 8716,
      "RCA": 8717,
      "RPO": 8718,
      "RBC": 8719,
      "Rales": 8720,
      "S3": 8721,
      "SQ": 8722,
      "SX": 8723,
      "Sj": 8724,
      "SCH": 8725,
      "Str": 8726,
      "SOF": 8727,
      "SEM": 8728,
      "Sel": 8729,
      "SCA": 8730,
      "Side": 8731,
      "SMA": 8732,
      "Six": 8733,
      "SCAR": 8734,
      "SHO": 8735,
      "SIVE": 8736,
      "SFA": 8737,
      "Skinfold": 8738,
      "SULT": 8739,
      "Silhouet": 8740,
      "SENING": 8741,
      "SWELL": 8742,
      "T6": 8743,
      "Tb": 8744,
      "Ter": 8745,
      "TORT": 8746,
      "TION": 8747,
      "TIC": 8748,
      "TMVR": 8749,
      "Tele": 8750,
      "TAV": 8751,
      "TISS": 8752,
      "Une": 8753,
      "ULE": 8754,
      "Unal": 8755,
      "UTE": 8756,
      "Upon": 8757,
      "UOUS": 8758,
      "UALIZED": 8759,
      "UOP": 8760,
      "VI": 8761,
      "VS": 8762,
      "VW": 8763,
      "VAC": 8764,
      "VDR": 8765,
      "VWS": 8766,
      "VHR": 8767,
      "VVI": 8768,
      "Wi": 8769,
      "Wo": 8770,
      "WAT": 8771,
      "Would": 8772,
      "WHI": 8773,
      "Wound": 8774,
      "WAR": 8775,
      "WIS": 8776,
      "WNL": 8777,
      "WHEE": 8778,
      "Xray": 8779,
      "XED": 8780,
      "YAB": 8781,
      "YTH": 8782,
      "ZING": 8783,
      "aa": 8784,
      "ae": 8785,
      "az": 8786,
      "aun": 8787,
      "ato": 8788,
      "auate": 8789,
      "aus": 8790,
      "aution": 8791,
      "aware": 8792,
      "bare": 8793,
      "bright": 8794,
      "bat": 8795,
      "bit": 8796,
      "bad": 8797,
      "bath": 8798,
      "boff": 8799,
      "bound": 8800,
      "bru": 8801,
      "battery": 8802,
      "billator": 8803,
      "c4": 8804,
      "c5": 8805,
      "cment": 8806,
      "cine": 8807,
      "centeric": 8808,
      "centesis": 8809,
      "ctur": 8810,
      "cdiff": 8811,
      "crotizing": 8812,
      "crohn": 8813,
      "dc": 8814,
      "dged": 8815,
      "drical": 8816,
      "ddles": 8817,
      "eal": 8818,
      "eis": 8819,
      "ech": 8820,
      "eic": 8821,
      "eity": 8822,
      "ethan": 8823,
      "emph": 8824,
      "eating": 8825,
      "eling": 8826,
      "eases": 8827,
      "formal": 8828,
      "fit": 8829,
      "frahilar": 8830,
      "glo": 8831,
      "gic": 8832,
      "gold": 8833,
      "gradi": 8834,
      "gia": 8835,
      "gap": 8836,
      "gluc": 8837,
      "hum": 8838,
      "hart": 8839,
      "host": 8840,
      "h20": 8841,
      "ira": 8842,
      "ially": 8843,
      "jaun": 8844,
      "kn": 8845,
      "ky": 8846,
      "kating": 8847,
      "kocy": 8848,
      "lof": 8849,
      "list": 8850,
      "lug": 8851,
      "laryngeal": 8852,
      "listed": 8853,
      "mt": 8854,
      "mri": 8855,
      "mer": 8856,
      "mur": 8857,
      "mber": 8858,
      "moplasty": 8859,
      "micking": 8860,
      "nval": 8861,
      "npe": 8862,
      "nized": 8863,
      "oen": 8864,
      "och": 8865,
      "oct": 8866,
      "oesophagus": 8867,
      "oarone": 8868,
      "ochol": 8869,
      "ovari": 8870,
      "otopic": 8871,
      "ojejunal": 8872,
      "pv": 8873,
      "ped": 8874,
      "ping": 8875,
      "psy": 8876,
      "pHTN": 8877,
      "pNA": 8878,
      "rt": 8879,
      "rul": 8880,
      "romy": 8881,
      "rash": 8882,
      "rhyth": 8883,
      "sx": 8884,
      "sne": 8885,
      "scal": 8886,
      "squ": 8887,
      "say": 8888,
      "sinu": 8889,
      "somew": 8890,
      "sling": 8891,
      "scope": 8892,
      "sory": 8893,
      "saber": 8894,
      "sCr": 8895,
      "stented": 8896,
      "tte": 8897,
      "ttic": 8898,
      "tSAH": 8899,
      "tbm": 8900,
      "ttom": 8901,
      "uit": 8902,
      "uates": 8903,
      "ually": 8904,
      "ulectomy": 8905,
      "vq": 8906,
      "vap": 8907,
      "wax": 8908,
      "why": 8909,
      "xy": 8910,
      "xplain": 8911,
      "ycle": 8912,
      "yema": 8913,
      "yment": 8914,
      "ysis": 8915,
      "ycin": 8916,
      "zen": 8917,
      "zation": 8918,
      "zos": 8919,
      "held": 8920,
      "hepat": 8921,
      "heroin": 8922,
      "arri": 8923,
      "arly": 8924,
      "arcan": 8925,
      "articular": 8926,
      "arrange": 8927,
      "arcation": 8928,
      "aries": 8929,
      "aroen": 8930,
      "onto": 8931,
      "onally": 8932,
      "oncolog": 8933,
      "aler": 8934,
      "alone": 8935,
      "aller": 8936,
      "alkal": 8937,
      "algia": 8938,
      "ined": 8939,
      "inum": 8940,
      "indi": 8941,
      "instr": 8942,
      "inad": 8943,
      "intr": 8944,
      "insignificant": 8945,
      "inside": 8946,
      "inste": 8947,
      "inations": 8948,
      "inib": 8949,
      "incorrect": 8950,
      "insepar": 8951,
      "instability": 8952,
      "inject": 8953,
      "oration": 8954,
      "orph": 8955,
      "orde": 8956,
      "orosis": 8957,
      "orally": 8958,
      "tel": 8959,
      "teral": 8960,
      "tesis": 8961,
      "isy": 8962,
      "isition": 8963,
      "iscule": 8964,
      "reli": 8965,
      "retr": 8966,
      "react": 8967,
      "recti": 8968,
      "really": 8969,
      "readvanced": 8970,
      "recr": 8971,
      "reinflation": 8972,
      "reimaging": 8973,
      "reverse": 8974,
      "rehab": 8975,
      "reenters": 8976,
      "revised": 8977,
      "rebral": 8978,
      "retitis": 8979,
      "rejection": 8980,
      "reduce": 8981,
      "reoccurrence": 8982,
      "leb": 8983,
      "leolar": 8984,
      "lerating": 8985,
      "lent": 8986,
      "lerium": 8987,
      "anous": 8988,
      "analy": 8989,
      "ancing": 8990,
      "anorexia": 8991,
      "edges": 8992,
      "thema": 8993,
      "thenia": 8994,
      "tigh": 8995,
      "tifact": 8996,
      "times": 8997,
      "timed": 8998,
      "asx": 8999,
      "asth": 9000,
      "asple": 9001,
      "asympt": 9002,
      "asites": 9003,
      "aspira": 9004,
      "asperg": 9005,
      "asinum": 9006,
      "asthenia": 9007,
      "thing": 9008,
      "enia": 9009,
      "enced": 9010,
      "enger": 9011,
      "enign": 9012,
      "entioned": 9013,
      "sie": 9014,
      "sight": 9015,
      "sili": 9016,
      "sitial": 9017,
      "sives": 9018,
      "acy": 9019,
      "acin": 9020,
      "action": 9021,
      "achi": 9022,
      "acqu": 9023,
      "acretitis": 9024,
      "righ": 9025,
      "ripsy": 9026,
      "sty": 9027,
      "station": 9028,
      "stated": 9029,
      "stone": 9030,
      "stating": 9031,
      "stress": 9032,
      "staged": 9033,
      "stamp": 9034,
      "staging": 9035,
      "ouhe": 9036,
      "ousity": 9037,
      "atel": 9038,
      "atest": 9039,
      "atelet": 9040,
      "_____": 9041,
      "omn": 9042,
      "unre": 9043,
      "unit": 9044,
      "unately": 9045,
      "unless": 9046,
      "unrelated": 9047,
      "until": 9048,
      "unrese": 9049,
      "ero": 9050,
      "erance": 9051,
      "eralized": 9052,
      "ercp": 9053,
      "ralgias": 9054,
      "umonary": 9055,
      "umothorax": 9056,
[...]
